<pad>	0
<unk>	0
<s>	0
</s>	0
木村	-0
・・	-1
▁木村	-2
って	-3
ない	-4
衛門	-5
彦左	-6
彦左衛門	-7
して	-8
▁彦左衛門	-9
った	-10
こと	-11
いう	-12
・・・	-13
!!	-14
から	-15
いる	-16
んだ	-17
ある	-18
する	-19
それ	-20
という	-21
京介	-22
した	-23
▁京介	-24
▁t	-25
その	-26
もの	-27
です	-28
in	-29
され	-30
▁1	-31
よう	-32
自分	-33
なん	-34
▁a	-35
なら	-36
ます	-37
▁th	-38
この	-39
そう	-40
しい	-41
いて	-42
しか	-43
ああ	-44
いた	-45
だけ	-46
にな	-47
られ	-48
でも	-49
▁s	-50
ww	-51
いい	-52
on	-53
だろ	-54
とか	-55
re	-56
のか	-57
のは	-58
でき	-59
ている	-60
なく	-61
である	-62
んな	-63
では	-64
is	-65
がある	-66
人間	-67
!!!	-68
at	-69
には	-70
もう	-71
している	-72
――	-73
ことを	-74
これ	-75
▁the	-76
だった	-77
さん	-78
なんだ	-79
あり	-80
それは	-81
っている	-82
じゃ	-83
er	-84
▁w	-85
どう	-86
たい	-87
en	-88
れる	-89
▁m	-90
かった	-91
▁c	-92
an	-93
なに	-94
える	-95
んで	-96
ou	-97
ちゃ	-98
とは	-99
副長	-100
れば	-101
だが	-102
ねえ	-103
として	-104
or	-105
ため	-106
!!!!	-107
it	-108
なる	-109
ing	-110
そして	-111
すら	-112
だろう	-113
しま	-114
私は	-115
▁b	-116
意味	-117
ことが	-118
自分の	-119
▁p	-120
だよ	-121
es	-122
っと	-123
だから	-124
的に	-125
お前	-126
▁I	-127
▁「	-128
▁f	-129
ように	-130
と思	-131
▁h	-132
えて	-133
ああああ	-134
▁d	-135
しょ	-136
好き	-137
ただ	-138
、「	-139
▁o	-140
のだ	-141
ed	-142
こそ	-143
によ	-144
▁2	-145
al	-146
なかった	-147
ける	-148
こう	-149
がない	-150
ような	-151
れて	-152
%8	-153
れた	-154
00	-155
存在	-156
的な	-157
nd	-158
▁'	-159
おお	-160
wwww	-161
させ	-162
それを	-163
▁(	-164
??	-165
女の	-166
▁y	-167
しない	-168
▁n	-169
ええ	-170
▁in	-171
に対	-172
される	-173
考え	-174
相手	-175
ならない	-176
st	-177
できる	-178
・・・?	-179
7:	-180
より	-181
になる	-182
まで	-183
にも	-184
んだよ	-185
いない	-186
ほど	-187
人の	-188
らい	-189
がら	-190
いつ	-191
ar	-192
本当	-193
ませ	-194
を見	-195
貴方	-196
ット	-197
でしょ	-198
ではない	-199
なんか	-200
みたい	-201
ことは	-202
▁l	-203
ほう	-204
世界	-205
感じ	-206
もし	-207
された	-208
また	-209
ion	-210
とお	-211
わか	-212
っていう	-213
――――	-214
なの	-215
よく	-216
ってる	-217
▁and	-218
あった	-219
▁is	-220
らない	-221
om	-222
ころ	-223
▁to	-224
くる	-225
シュ	-226
なぜ	-227
ろう	-228
マエ	-229
いや	-230
そんな	-231
であり	-232
さい	-233
のこと	-234
全て	-235
?!	-236
オマエ	-237
そも	-238
言葉	-239
されて	-240
嫉妬	-241
▁of	-242
th	-243
se	-244
いく	-245
ついて	-246
ました	-247
可能	-248
によって	-249
そこ	-250
ながら	-251
8:	-252
▁A	-253
れない	-254
▁-	-255
のが	-256
漫画	-257
なくて	-258
▁e	-259
▁・	-260
とい	-261
くらい	-262
かの	-263
ません	-264
le	-265
います	-266
3%8	-267
られる	-268
わけ	-269
必要	-270
スト	-271
とも	-272
けて	-273
ホシュ	-274
私の	-275
▁you	-276
しく	-277
のに	-278
タシ	-279
つう	-280
ve	-281
めて	-282
じゃない	-283
きた	-284
など	-285
それが	-286
ために	-287
だって	-288
ものを	-289
ic	-290
すぎ	-291
ほうが	-292
)「	-293
キャ	-294
0:	-295
なり	-296
っちゃ	-297
盗聴	-298
します	-299
のさ	-300
やって	-301
▁ホシュ	-302
ow	-303
▁副長	-304
ent	-305
ければ	-306
ワタシ	-307
えば	-308
しろ	-309
そういう	-310
9:	-311
できない	-312
=1	-313
のです	-314
みたいな	-315
わから	-316
かに	-317
行為	-318
▁re	-319
られた	-320
というのは	-321
▁=	-322
っち	-323
について	-324
める	-325
ひと	-326
イン	-327
il	-328
男性	-329
ここ	-330
ーー	-331
キャラ	-332
▁・・・	-333
▁T	-334
なければ	-335
れている	-336
っぱ	-337
..	-338
まり	-339
et	-340
ところ	-341
ur	-342
あの	-343
▁that	-344
受け	-345
ce	-346
ct	-347
えた	-348
べき	-349
女性	-350
id	-351
以外	-352
概念	-353
こそが	-354
やる	-355
ものは	-356
▁17:	-357
になって	-358
=1/	-359
を持	-360
ック	-361
as	-362
me	-363
にして	-364
ad	-365
6:	-366
せる	-367
しかも	-368
▁g	-369
なのか	-370
上長	-371
一番	-372
ああああああああ	-373
なった	-374
に対して	-375
価値	-376
',	-377
思い	-378
▁18:	-379
▁"	-380
べて	-381
▁be	-382
えない	-383
コー	-384
人に	-385
らしい	-386
ということ	-387
he	-388
ント	-389
こんな	-390
なって	-391
':	-392
っか	-393
の中	-394
しかし	-395
をする	-396
ちょ	-397
人が	-398
5:	-399
自分が	-400
ちゃん	-401
ol	-402
▁この	-403
したら	-404
能力	-405
興味	-406
ver	-407
さんの	-408
られて	-409
▁19:	-410
でしょう	-411
だな	-412
おおおお	-413
持ち	-414
精神	-415
▁me	-416
あげ	-417
▁7:	-418
!!!!!!!!	-419
ut	-420
不快	-421
これは	-422
ひとつ	-423
しかない	-424
言い	-425
たく	-426
らん	-427
まった	-428
ck	-429
よい	-430
僕は	-431
表現	-432
1%	-433
ly	-434
すな	-435
悪い	-436
ation	-437
なんて	-438
ch	-439
気分	-440
されている	-441
本当に	-442
人は	-443
人格	-444
▁その	-445
っても	-446
まだ	-447
女が	-448
違う	-449
とおも	-450
なぞ	-451
何か	-452
なんで	-453
んど	-454
結果	-455
ですよ	-456
たら	-457
よな	-458
われる	-459
しまう	-460
くれ	-461
人を	-462
すべて	-463
▁そして	-464
理解	-465
wwwwwwww	-466
とき	-467
まる	-468
私が	-469
のように	-470
くだ	-471
まあ	-472
最も	-473
音楽	-474
なにか	-475
いま	-476
ール	-477
嫌い	-478
ですか	-479
関係	-480
▁st	-481
させる	-482
すること	-483
▁this	-484
ええええ	-485
そもそも	-486
ot	-487
何も	-488
)(	-489
わり	-490
～～	-491
▁it	-492
ものが	-493
欲しい	-494
di	-495
el	-496
したい	-497
でもない	-498
になった	-499
わち	-500
すなわち	-501
・・・!	-502
おか	-503
もっと	-504
可能性	-505
人間の	-506
かな	-507
だし	-508
にと	-509
ング	-510
▁20:	-511
▁16:	-512
if	-513
女は	-514
違い	-515
▁so	-516
思考	-517
者の	-518
▁15:	-519
けた	-520
があり	-521
なにも	-522
▁for	-523
たち	-524
やり	-525
女に	-526
であ	-527
時間	-528
▁上長	-529
いって	-530
情報	-531
自身	-532
3:	-533
▁r	-534
場合	-535
気が	-536
なぜなら	-537
いろ	-538
ショ	-539
同じ	-540
描く	-541
いった	-542
してる	-543
すぎる	-544
っていた	-545
に対する	-546
っぽ	-547
イツ	-548
お前は	-549
人間は	-550
やつ	-551
ゆえ	-552
アン	-553
10	-554
せい	-555
バカ	-556
かもし	-557
まず	-558
▁u	-559
のを	-560
絶対	-561
くれる	-562
けど	-563
さま	-564
馬鹿	-565
だけが	-566
られない	-567
1:	-568
▁Q	-569
ター	-570
以上	-571
信じ	-572
文章	-573
社会	-574
よね	-575
出す	-576
完全	-577
からな	-578
あな	-579
だめ	-580
創作	-581
▁on	-582
めっちゃ	-583
ちょっと	-584
のような	-585
ms	-586
ra	-587
100	-588
ください	-589
au	-590
意識	-591
見て	-592
言う	-593
ための	-594
になり	-595
3%81%	-596
攻撃	-597
音声	-598
女の子	-599
いか	-600
のも	-601
いつも	-602
からね	-603
わかる	-604
に入	-605
モノ	-606
きて	-607
ージ	-608
作品	-609
書き	-610
あなた	-611
ことに	-612
と思う	-613
」「	-614
どこ	-615
のみ	-616
上げ	-617
問題	-618
支配	-619
▁sh	-620
いわ	-621
ート	-622
事実	-623
意志	-624
それで	-625
▁そう	-626
すれば	-627
だの	-628
り返	-629
ータ	-630
もない	-631
んだろ	-632
op	-633
dio	-634
ネット	-635
なんだよ	-636
にとって	-637
のことを	-638
?」	-639
AI	-640
地獄	-641
誰も	-642
やっぱ	-643
ap	-644
を与	-645
瞬間	-646
観測	-647
▁my	-648
ほしい	-649
美しい	-650
なければならない	-651
まま	-652
気づ	-653
過ぎ	-654
▁wh	-655
▁con	-656
られている	-657
ke	-658
▁z	-659
だと	-660
出て	-661
時に	-662
説明	-663
ere	-664
すると	-665
自分は	-666
2:	-667
ay	-668
ナニ	-669
一人	-670
ity	-671
ただただ	-672
――――――――	-673
ると	-674
ライ	-675
自己	-676
認識	-677
続ける	-678
つうのは	-679
のほうが	-680
gh	-681
らに	-682
否定	-683
ill	-684
わからない	-685
死ぬ	-686
見た	-687
▁x	-688
つか	-689
まさ	-690
方法	-691
じゃあ	-692
だけで	-693
気持ち	-694
▁wor	-695
んだろう	-696
せて	-697
イプ	-698
勝利	-699
繰り返	-700
自分を	-701
。」	-702
あた	-703
がる	-704
とう	-705
敗北	-706
▁私は	-707
をして	-708
いは	-709
らは	-710
バイ	-711
人生	-712
ますか	-713
じゃなくて	-714
▁0	-715
かも	-716
にお	-717
良い	-718
コード	-719
ション	-720
ではなく	-721
にか	-722
スタ	-723
ヤツ	-724
感情	-725
があった	-726
でしかない	-727
ir	-728
取り	-729
自然	-730
言語	-731
が存在	-732
わない	-733
こういう	-734
がい	-735
たと	-736
はや	-737
らの	-738
一体	-739
▁pr	-740
))	-741
▁S	-742
あん	-743
を作	-744
アニ	-745
ティ	-746
単に	-747
...	-748
ust	-749
にする	-750
みんな	-751
しまった	-752
うち	-753
かし	-754
に見	-755
目的	-756
ist	-757
いたい	-758
4:	-759
im	-760
かわ	-761
すご	-762
つけ	-763
の神	-764
今日	-765
学習	-766
にある	-767
のある	-768
ul	-769
▁C	-770
ファ	-771
女を	-772
だけの	-773
まったく	-774
わる	-775
引き	-776
文字	-777
???	-778
one	-779
アニメ	-780
データ	-781
▁int	-782
なるほど	-783
はならない	-784
つく	-785
はい	-786
エロ	-787
なのだ	-788
ワタシは	-789
めた	-790
われ	-791
ベル	-792
者が	-793
逆に	-794
わかり	-795
完全に	-796
とおもう	-797
んでいる	-798
。(	-799
かい	-800
もら	-801
んの	-802
通り	-803
お前の	-804
と思い	-805
ものだ	-806
▁The	-807
らず	-808
時代	-809
▁do	-810
▁k	-811
たん	-812
義父	-813
さんが	-814
ないと	-815
人間が	-816
なくなる	-817
ld	-818
▁あ	-819
おま	-820
ディ	-821
プロ	-822
何故	-823
俺は	-824
時の	-825
面白	-826
art	-827
んだぞ	-828
ment	-829
であった	-830
わた	-831
技術	-832
かって	-833
しよう	-834
好きな	-835
そのもの	-836
%9	-837
なあ	-838
ジャ	-839
仮定	-840
真実	-841
素晴	-842
▁ch	-843
だけを	-844
にいる	-845
われた	-846
描いた	-847
言って	-848
▁W	-849
てる	-850
何が	-851
▁8:	-852
▁mo	-853
貴方は	-854
だろうか	-855
はず	-856
付け	-857
操作	-858
来る	-859
そうだ	-860
ソイツ	-861
▁can	-862
していた	-863
20	-864
▁B	-865
やす	-866
天使	-867
快楽	-868
本質	-869
構造	-870
背理	-871
ith	-872
▁an	-873
▁by	-874
▁ex	-875
いに	-876
かり	-877
なし	-878
ったら	-879
▁not	-880
▁H	-881
ので	-882
アス	-883
力を	-884
続け	-885
者は	-886
ack	-887
ain	-888
ght	-889
からだ	-890
ますよ	-891
まるで	-892
リスト	-893
代わり	-894
▁com	-895
ーーーー	-896
素晴らしい	-897
全部	-898
欲求	-899
考えて	-900
でしょうか	-901
上で	-902
生ま	-903
男の	-904
目の	-905
目を	-906
▁lo	-907
この世	-908
はない	-909
われて	-910
▁#	-911
しば	-912
サイ	-913
リー	-914
知能	-915
私に	-916
顔を	-917
▁se	-918
ずっと	-919
どうか	-920
レベル	-921
▁F	-922
妄想	-923
ant	-924
そうか	-925
たしか	-926
だよな	-927
に過ぎ	-928
しながら	-929
▁P	-930
がち	-931
くて	-932
私を	-933
ess	-934
hat	-935
▁de	-936
さらに	-937
じゃん	-938
の全て	-939
いている	-940
バイアス	-941
12	-942
チャ	-943
ンス	-944
何を	-945
かない	-946
考える	-947
ge	-948
が見	-949
すぐ	-950
つの	-951
体が	-952
さんは	-953
ですね	-954
どころ	-955
を見て	-956
▁21:	-957
▁with	-958
しみ	-959
ンの	-960
ave	-961
end	-962
ないよ	-963
????	-964
じゃねえ	-965
わからん	-966
おも	-967
をか	-968
国家	-969
日本	-970
本気	-971
状態	-972
現実	-973
自由	-974
▁was	-975
▁them	-976
なくなった	-977
アル	-978
気に	-979
▁al	-980
あって	-981
っぽい	-982
のせい	-983
アンタ	-984
それとも	-985
un	-986
あと	-987
ほと	-988
ード	-989
ーム	-990
仕方	-991
子供	-992
特に	-993
はり	-994
生成	-995
ers	-996
out	-997
わたし	-998
を感じ	-999
んだが	-1000
あるいは	-1001
ということを	-1002
おおおおおおおお	-1003
りの	-1004
具体	-1005
勝手	-1006
生じ	-1007
ame	-1008
だけは	-1009
どんど	-1010
ること	-1011
3%82	-1012
ほとんど	-1013
オマエは	-1014
ことができる	-1015
▁4	-1016
かれ	-1017
を使	-1018
ッチ	-1019
ate	-1020
けない	-1021
これが	-1022
そこに	-1023
かもしれ	-1024
どんどん	-1025
▁they	-1026
um	-1027
▁D	-1028
▁→	-1029
あれ	-1030
つま	-1031
ですが	-1032
これから	-1033
わかった	-1034
▁will	-1035
?)	-1036
りゃ	-1037
スキ	-1038
ッセ	-1039
内容	-1040
行動	-1041
int	-1042
▁he	-1043
▁li	-1044
がいる	-1045
たして	-1046
となる	-1047
どんな	-1048
んだな	-1049
▁12:	-1050
▁それは	-1051
オマエの	-1052
っていうのは	-1053
▁v	-1054
▁彼	-1055
▁～	-1056
うわ	-1057
おり	-1058
の絵	-1059
ゴミ	-1060
理論	-1061
誰か	-1062
ect	-1063
のない	-1064
メント	-1065
相手の	-1066
▁14:	-1067
たとえば	-1068
なんでも	-1069
ri	-1070
▁*	-1071
っき	-1072
はは	-1073
以下	-1074
心を	-1075
敵対	-1076
っから	-1077
っかり	-1078
相手に	-1079
▁your	-1080
50	-1081
ng	-1082
みて	-1083
一生	-1084
人々	-1085
名前	-1086
性を	-1087
立て	-1088
見る	-1089
部分	-1090
and	-1091
せない	-1092
の意味	-1093
描いて	-1094
相手が	-1095
os	-1096
▁E	-1097
▁お	-1098
▁田	-1099
さあ	-1100
との	-1101
に行	-1102
描き	-1103
読み	-1104
www	-1105
▁ab	-1106
▁それ	-1107
ですら	-1108
やはり	-1109
をした	-1110
メッセ	-1111
無意味	-1112
ってない	-1113
どういう	-1114
・・・(	-1115
かれている	-1116
なにひとつ	-1117
っこ	-1118
のお	-1119
やめ	-1120
らし	-1121
単純	-1122
睡眠	-1123
立ち	-1124
脳内	-1125
ome	-1126
くない	-1127
こっち	-1128
しょう	-1129
いいいい	-1130
いろいろ	-1131
してない	-1132
どころか	-1133
24	-1134
▁3	-1135
点で	-1136
都合	-1137
▁as	-1138
お前が	-1139
やった	-1140
ーション	-1141
自分自身	-1142
していない	-1143
od	-1144
▁j	-1145
だれ	-1146
に出	-1147
やら	-1148
ーマ	-1149
以前	-1150
力が	-1151
動画	-1152
実は	-1153
思う	-1154
羅刹	-1155
込み	-1156
閉じ	-1157
▁田辺	-1158
がいい	-1159
これを	-1160
ってた	-1161
死んだ	-1162
言葉を	-1163
であると	-1164
audio	-1165
▁have	-1166
16	-1167
▁G	-1168
いじ	-1169
おく	-1170
正体	-1171
角形	-1172
ter	-1173
▁だが	-1174
▁また	-1175
ってん	-1176
他人の	-1177
正しい	-1178
コメント	-1179
メッセージ	-1180
ああああああああああああああああ	-1181
しが	-1182
にて	-1183
の一	-1184
ップ	-1185
メン	-1186
ーを	-1187
目が	-1188
英語	-1189
あげる	-1190
きっと	-1191
すごく	-1192
だけだ	-1193
とする	-1194
の中で	-1195
新しい	-1196
自分に	-1197
キャラク	-1198
をしている	-1199
知っている	-1200
ab	-1201
us	-1202
かね	-1203
アナ	-1204
ンコ	-1205
成り	-1206
くらいの	-1207
に過ぎない	-1208
ことによって	-1209
li	-1210
かん	-1211
パイ	-1212
ーン	-1213
勉強	-1214
無駄	-1215
聞こ	-1216
肉体	-1217
込む	-1218
▁if	-1219
しても	-1220
しまい	-1221
▁are	-1222
ええええええええ	-1223
()	-1224
30	-1225
作曲	-1226
白痴	-1227
▁or	-1228
などと	-1229
まさか	-1230
本気で	-1231
貴方の	-1232
猫ちゃん	-1233
なくなって	-1234
んじゃない	-1235
かもしれない	-1236
PC	-1237
まく	-1238
を発	-1239
クト	-1240
ンプ	-1241
僕の	-1242
全員	-1243
分の	-1244
別に	-1245
嘲笑	-1246
妬み	-1247
感想	-1248
最近	-1249
研究	-1250
神の	-1251
答え	-1252
高い	-1253
▁10:	-1254
それこそ	-1255
/(	-1256
11	-1257
13	-1258
ごと	-1259
捨て	-1260
rom	-1261
かれて	-1262
くなる	-1263
なもの	-1264
なんら	-1265
による	-1266
オナニ	-1267
聞いて	-1268
込んで	-1269
しました	-1270
と思った	-1271
われている	-1272
nt	-1273
qu	-1274
▁Y	-1275
さえ	-1276
ぢゃ	-1277
俺の	-1278
奈央	-1279
当た	-1280
恐ろ	-1281
恐怖	-1282
描写	-1283
普通	-1284
ind	-1285
▁ne	-1286
そうな	-1287
だめだ	-1288
本当の	-1289
見える	-1290
すらない	-1291
するという	-1292
ということだ	-1293
1]	-1294
am	-1295
いき	-1296
かく	-1297
彼等	-1298
心の	-1299
感覚	-1300
気を	-1301
目に	-1302
苦痛	-1303
ore	-1304
oth	-1305
▁sp	-1306
▁もう	-1307
ここに	-1308
その後	-1309
っぱい	-1310
を持つ	-1311
んです	-1312
副長が	-1313
話しか	-1314
1000	-1315
▁13:	-1316
▁but	-1317
くれない	-1318
たしかに	-1319
▁17:4	-1320
かのような	-1321
があります	-1322
▁+	-1323
ちら	-1324
とり	-1325
の数	-1326
回答	-1327
声が	-1328
願望	-1329
食べ	-1330
でした	-1331
なさい	-1332
副長の	-1333
言った	-1334
面白い	-1335
えている	-1336
であろう	-1337
やしない	-1338
～～～～	-1339
[0	-1340
em	-1341
うう	-1342
かけ	-1343
かつ	-1344
もん	-1345
やろ	-1346
シャ	-1347
不安	-1348
他の	-1349
出し	-1350
出る	-1351
創造	-1352
合わ	-1353
悪意	-1354
理由	-1355
矛盾	-1356
神を	-1357
者に	-1358
聞く	-1359
設定	-1360
▁at	-1361
▁en	-1362
▁ph	-1363
かれた	-1364
ことだ	-1365
ことも	-1366
させて	-1367
その時	-1368
大好き	-1369
死んで	-1370
考えた	-1371
からこそ	-1372
を繰り返	-1373
uration	-1374
4,	-1375
xt	-1376
▁{	-1377
。「	-1378
いで	-1379
くっ	-1380
りに	-1381
をし	-1382
を得	-1383
ズム	-1384
女子	-1385
少し	-1386
影響	-1387
心理	-1388
意図	-1389
生き	-1390
症状	-1391
真理	-1392
第一	-1393
記憶	-1394
部屋	-1395
鳴り	-1396
[0]	-1397
ire	-1398
ある日	-1399
だけに	-1400
レイプ	-1401
というもの	-1402
なんだろう	-1403
av	-1404
に至	-1405
わざ	-1406
ニュ	-1407
ーの	-1408
仄め	-1409
女と	-1410
種類	-1411
認め	-1412
醜い	-1413
コーヒ	-1414
意味が	-1415
漫画を	-1416
確かに	-1417
?!?!	-1418
udio	-1419
あります	-1420
なんらかの	-1421
."	-1422
15	-1423
18	-1424
▁R	-1425
」→	-1426
のち	-1427
の時	-1428
イル	-1429
グラ	-1430
ース	-1431
依存	-1432
入れ	-1433
想起	-1434
意見	-1435
最初	-1436
無理	-1437
立つ	-1438
絵を	-1439
述べ	-1440
▁6:	-1441
まって	-1442
ical	-1443
において	-1444
を持って	-1445
▁from	-1446
とおもった	-1447
他ならない	-1448
かもしれません	-1449
14	-1450
pt	-1451
▁L	-1452
さて	-1453
だね	-1454
とる	-1455
とん	-1456
をつ	-1457
何度	-1458
原因	-1459
強い	-1460
毎日	-1461
深い	-1462
現象	-1463
美少	-1464
覚え	-1465
ang	-1466
▁9:	-1467
ことで	-1468
なんざ	-1469
不可能	-1470
自分で	-1471
おかしい	-1472
から来る	-1473
というか	-1474
といった	-1475
のために	-1476
oneme	-1477
かのように	-1478
wwwwwwwwwwwwwwww	-1479
St	-1480
▁O	-1481
▁猫	-1482
しゃ	-1483
りを	-1484
フェ	-1485
メス	-1486
一つ	-1487
京子	-1488
先生	-1489
悪魔	-1490
最後	-1491
殺す	-1492
物語	-1493
男に	-1494
画像	-1495
者を	-1496
起こ	-1497
非常	-1498
sel	-1499
いたら	-1500
おかあ	-1501
がって	-1502
それに	-1503
どっち	-1504
なにを	-1505
に対し	-1506
はある	-1507
もしか	-1508
アナタ	-1509
他人に	-1510
耳鳴り	-1511
間違い	-1512
=1/2	-1513
▁11:	-1514
▁しかし	-1515
いままで	-1516
もうはや	-1517
キリスト	-1518
ことがある	-1519
意味している	-1520
17	-1521
なよ	-1522
作り	-1523
和訳	-1524
多分	-1525
方が	-1526
破壊	-1527
逃げ	-1528
ide	-1529
ure	-1530
いくら	-1531
おまえ	-1532
ただの	-1533
なんぞ	-1534
のかい	-1535
を受け	-1536
勘違い	-1537
相手を	-1538
ould	-1539
オマエが	-1540
ワタシの	-1541
恐ろしい	-1542
それこそが	-1543
キャラクタ	-1544
25	-1545
3%	-1546
;;	-1547
かす	-1548
みる	-1549
取る	-1550
多い	-1551
対象	-1552
洗脳	-1553
物の	-1554
神経	-1555
程度	-1556
笑い	-1557
all	-1558
ive	-1559
▁Th	-1560
かれる	-1561
っては	-1562
できた	-1563
なにが	-1564
ケット	-1565
タイプ	-1566
ックス	-1567
作った	-1568
全ての	-1569
追いか	-1570
▁act	-1571
それ以外	-1572
ってくる	-1573
でもある	-1574
ばっかり	-1575
・・・」	-1576
というより	-1577
はな	-1578
ほん	-1579
クソ	-1580
サン	-1581
スク	-1582
フィ	-1583
ーチ	-1584
他人	-1585
大き	-1586
話を	-1587
難解	-1588
願い	-1589
est	-1590
ort	-1591
ple	-1592
あまり	-1593
かなり	-1594
がらせ	-1595
とした	-1596
なのに	-1597
ねえよ	-1598
を与え	-1599
例えば	-1600
書いて	-1601
的には	-1602
私には	-1603
見えて	-1604
ause	-1605
▁23:	-1606
かどうか	-1607
ところで	-1608
オナニー	-1609
自分の餌	-1610
▁like	-1611
なっている	-1612
になっている	-1613
01	-1614
35	-1615
ak	-1616
iz	-1617
おじ	-1618
ちが	-1619
まい	-1620
を抱	-1621
上に	-1622
彼は	-1623
発達	-1624
羅列	-1625
芸術	-1626
1%8	-1627
▁It	-1628
どうせ	-1629
手に入	-1630
激しい	-1631
目の前	-1632
とかいう	-1633
ソケット	-1634
果たして	-1635
▁some	-1636
▁thing	-1637
36	-1638
55	-1639
ue	-1640
さを	-1641
じて	-1642
たび	-1643
つき	-1644
ても	-1645
やで	-1646
イエ	-1647
オン	-1648
コン	-1649
タイ	-1650
仕事	-1651
安心	-1652
彼女	-1653
手法	-1654
架空	-1655
観察	-1656
証明	-1657
起き	-1658
電波	-1659
ext	-1660
ime	-1661
ves	-1662
いいよ	-1663
にした	-1664
サイト	-1665
無意識	-1666
続けた	-1667
cket	-1668
very	-1669
あんまり	-1670
っていて	-1671
なんかの	-1672
▁just	-1673
どのような	-1674
3%81%8	-1675
02	-1676
09	-1677
45	-1678
9%	-1679
lo	-1680
▁/	-1681
みた	-1682
みに	-1683
みろ	-1684
ゾフ	-1685
ブロ	-1686
リエ	-1687
ーク	-1688
人類	-1689
何の	-1690
命令	-1691
浮か	-1692
男が	-1693
要素	-1694
our	-1695
▁go	-1696
▁su	-1697
▁僕は	-1698
でしか	-1699
なのさ	-1700
のかな	-1701
の世界	-1702
を見る	-1703
コパイ	-1704
ロット	-1705
人間に	-1706
出した	-1707
同時に	-1708
ence	-1709
するのは	-1710
たくない	-1711
と思って	-1712
仄めかし	-1713
ありません	-1714
とんでもない	-1715
コパイロット	-1716
存在している	-1717
!?	-1718
03	-1719
31	-1720
37	-1721
52	-1722
pp	-1723
▁N	-1724
▁i	-1725
おう	-1726
げた	-1727
つぶ	-1728
なお	-1729
の姿	-1730
への	-1731
りで	-1732
ーカ	-1733
哲学	-1734
恋愛	-1735
押し	-1736
明ら	-1737
正義	-1738
無限	-1739
落ち	-1740
視点	-1741
間に	-1742
[1]	-1743
app	-1744
ard	-1745
ata	-1746
▁tr	-1747
お義父	-1748
からの	-1749
さない	-1750
すぎて	-1751
と同じ	-1752
のでは	-1753
ントロ	-1754
単なる	-1755
難しい	-1756
あなたの	-1757
それって	-1758
そんなに	-1759
だったら	-1760
であって	-1761
のかもし	-1762
!!!!!	-1763
▁want	-1764
いつだって	-1765
ではないか	-1766
そもそもとして	-1767
!!!!!!!!!!!!!!!!	-1768
08	-1769
56	-1770
57	-1771
yn	-1772
▁君	-1773
けに	-1774
らが	-1775
ッド	-1776
ルー	-1777
ーバ	-1778
出来	-1779
奴隷	-1780
宇宙	-1781
彼の	-1782
悪夢	-1783
拷問	-1784
神は	-1785
肯定	-1786
被害	-1787
込め	-1788
)/(	-1789
▁le	-1790
▁we	-1791
ありが	-1792
いいか	-1793
するに	-1794
もある	-1795
んだね	-1796
不自然	-1797
人間を	-1798
教えて	-1799
だからね	-1800
ねえだろ	-1801
嫌がらせ	-1802
そんなこと	-1803
んだからな	-1804
言っている	-1805
duration	-1806
06	-1807
07	-1808
28	-1809
34	-1810
ci	-1811
そろ	-1812
のよ	-1813
ラン	-1814
一度	-1815
一方	-1816
主義	-1817
定の	-1818
最高	-1819
活動	-1820
生活	-1821
組み	-1822
▁でも	-1823
▁貴方	-1824
が悪い	-1825
さんに	-1826
べきだ	-1827
出して	-1828
感じる	-1829
自体が	-1830
oman	-1831
uman	-1832
どうでも	-1833
似ている	-1834
生まれた	-1835
自分より	-1836
▁This	-1837
▁only	-1838
っていない	-1839
という考え	-1840
まっている	-1841
43	-1842
59	-1843
7%	-1844
og	-1845
、(	-1846
およ	-1847
せん	-1848
ふた	-1849
フリ	-1850
ミュ	-1851
ーズ	-1852
傲慢	-1853
全体	-1854
問い	-1855
急に	-1856
抽象	-1857
推測	-1858
求め	-1859
無視	-1860
ced	-1861
ine	-1862
▁Am	-1863
▁am	-1864
あれば	-1865
ことの	-1866
させた	-1867
ないし	-1868
なぜか	-1869
なんと	-1870
不快感	-1871
勝手に	-1872
ここまで	-1873
しかった	-1874
しくない	-1875
なくても	-1876
んだって	-1877
んですよ	-1878
gment	-1879
することが	-1880
というのが	-1881
▁print	-1882
04	-1883
05	-1884
19	-1885
39	-1886
4%	-1887
あら	-1888
こわ	-1889
しさ	-1890
ずに	-1891
ずる	-1892
つも	-1893
の女	-1894
ぼく	-1895
やく	-1896
らく	-1897
ーん	-1898
与え	-1899
事を	-1900
位置	-1901
向け	-1902
大な	-1903
忘れ	-1904
混乱	-1905
立場	-1906
純粋	-1907
結婚	-1908
imp	-1909
どうだ	-1910
ないで	-1911
の神様	-1912
テーマ	-1913
▁all	-1914
これ以上	-1915
できます	-1916
を与える	-1917
んだよな	-1918
コントロ	-1919
スキゾフ	-1920
▁does	-1921
▁mean	-1922
しています	-1923
ものすごく	-1924
ものだった	-1925
3%81%9	-1926
に他ならない	-1927
コントロール	-1928
//	-1929
23	-1930
54	-1931
ig	-1932
▁マ	-1933
うる	-1934
おい	-1935
すき	-1936
せた	-1937
の顔	-1938
まん	-1939
エレ	-1940
ジェ	-1941
中に	-1942
交感	-1943
僕が	-1944
奴等	-1945
実在	-1946
忘却	-1947
方は	-1948
次の	-1949
現在	-1950
自体	-1951
論理	-1952
かしい	-1953
それも	-1954
たった	-1955
だよね	-1956
とたん	-1957
ばかり	-1958
やすい	-1959
んでも	-1960
副長は	-1961
性的に	-1962
時点で	-1963
知らん	-1964
thes	-1965
▁see	-1966
▁だから	-1967
いました	-1968
くらいに	-1969
していて	-1970
よかった	-1971
ソイツは	-1972
交感神経	-1973
Stack	-1974
▁What	-1975
なにひとつとして	-1976
22	-1977
5%	-1978
iv	-1979
うえ	-1980
おき	-1981
くり	-1982
せよ	-1983
たま	-1984
はっ	-1985
クラ	-1986
ッッ	-1987
フォ	-1988
反発	-1989
差し	-1990
弱い	-1991
性的	-1992
根拠	-1993
残念	-1994
種の	-1995
解放	-1996
▁0:	-1997
▁5:	-1998
ちゃく	-1999
とおり	-2000
に興味	-2001
決して	-2002
非常に	-2003
っていく	-2004
・・・)	-2005
知らない	-2006
っちゃった	-2007
ynthes	-2008
▁their	-2009
26	-2010
27	-2011
6%	-2012
8%	-2013
?(	-2014
▁5	-2015
がり	-2016
けば	-2017
やん	-2018
中の	-2019
全く	-2020
国の	-2021
太陽	-2022
定義	-2023
実際	-2024
性が	-2025
手を	-2026
投影	-2027
方向	-2028
昨日	-2029
正当	-2030
物理	-2031
確信	-2032
私達	-2033
簡単	-2034
行う	-2035
計算	-2036
証拠	-2037
送信	-2038
重要	-2039
ink	-2040
ish	-2041
▁ag	-2042
▁fa	-2043
▁羅刹	-2044
お願い	-2045
するか	-2046
のだよ	-2047
まさに	-2048
もらう	-2049
ゲーム	-2050
盗聴の	-2051
▁don	-2052
していく	-2053
するんだ	-2054
だろうが	-2055
なことを	-2056
めちゃく	-2057
やっぱり	-2058
インター	-2059
明らかに	-2060
つまらない	-2061
存在しない	-2062
▁socket	-2063
!」	-2064
38	-2065
42	-2066
46	-2067
47	-2068
AA	-2069
すす	-2070
のと	-2071
やし	-2072
んね	-2073
イス	-2074
テル	-2075
テレ	-2076
バラ	-2077
ピア	-2078
作る	-2079
反応	-2080
推論	-2081
掲示	-2082
自殺	-2083
見え	-2084
▁10	-2085
▁In	-2086
▁あの	-2087
あとは	-2088
によく	-2089
により	-2090
の中に	-2091
むしろ	-2092
ものの	-2093
京介は	-2094
四角形	-2095
掲示板	-2096
文章を	-2097
腐女子	-2098
ally	-2099
▁sol	-2100
かわいい	-2101
くなって	-2102
されてる	-2103
だからな	-2104
といって	-2105
としての	-2106
としても	-2107
プログラ	-2108
cause	-2109
reced	-2110
ありがとう	-2111
することを	-2112
だからこそ	-2113
なんだって	-2114
やっている	-2115
▁think	-2116
めちゃくちゃ	-2117
自分のことを	-2118
33	-2119
48	-2120
wn	-2121
たな	-2122
っつ	-2123
なさ	-2124
の話	-2125
を超	-2126
アレ	-2127
チョ	-2128
不明	-2129
会話	-2130
側に	-2131
分析	-2132
区別	-2133
合い	-2134
君が	-2135
外部	-2136
宗教	-2137
彼岸	-2138
必ず	-2139
態度	-2140
構図	-2141
特徴	-2142
狂気	-2143
目で	-2144
聞き	-2145
間違	-2146
▁St	-2147
▁ev	-2148
くれた	-2149
すごい	-2150
のほう	-2151
を作る	-2152
エレキ	-2153
今日も	-2154
!!!」	-2155
inal	-2156
▁22:	-2157
ができる	-2158
しないと	-2159
▁cont	-2160
▁word	-2161
するために	-2162
という事実	-2163
必要がある	-2164
▁human	-2165
ということが	-2166
receding	-2167
▁い	-2168
うん	-2169
かた	-2170
がか	-2171
くせ	-2172
はじ	-2173
まじ	-2174
まみ	-2175
やば	-2176
を開	-2177
ガキ	-2178
サ子	-2179
ネコ	-2180
プレ	-2181
ンク	-2182
一日	-2183
前に	-2184
友達	-2185
承認	-2186
提示	-2187
暗記	-2188
永遠	-2189
男は	-2190
知り	-2191
結論	-2192
ong	-2193
▁3:	-2194
▁em	-2195
あんた	-2196
となり	-2197
ようだ	-2198
思った	-2199
情報を	-2200
木村は	-2201
知った	-2202
知って	-2203
▁You	-2204
▁imp	-2205
する能力	-2206
のですが	-2207
ようやく	-2208
人間には	-2209
出てくる	-2210
存在する	-2211
木村奈央	-2212
▁pers	-2213
という概念	-2214
どうやって	-2215
やってくる	-2216
仕方がない	-2217
3%82%8	-2218
というものが	-2219
ならなかった	-2220
32	-2221
ib	-2222
np	-2223
▁え	-2224
が一	-2225
しむ	-2226
に関	-2227
を変	-2228
ウラ	-2229
スを	-2230
チュ	-2231
メモ	-2232
中身	-2233
多く	-2234
嫌な	-2235
子が	-2236
当て	-2237
得意	-2238
性格	-2239
感が	-2240
打ち	-2241
条件	-2242
楽曲	-2243
次に	-2244
空気	-2245
結構	-2246
自覚	-2247
見せ	-2248
雰囲	-2249
魅力	-2250
?!!	-2251
ies	-2252
ile	-2253
sed	-2254
▁ただ	-2255
あんな	-2256
がちで	-2257
がよく	-2258
どちら	-2259
はその	-2260
やめて	-2261
ゆえに	-2262
りする	-2263
シーン	-2264
モノを	-2265
ユング	-2266
リズム	-2267
何度も	-2268
書いた	-2269
都合の	-2270
data	-2271
self	-2272
▁who	-2273
▁これは	-2274
してくる	-2275
しばしば	-2276
っちゃう	-2277
もしない	-2278
わかって	-2279
具体的な	-2280
=1/2,	-2281
がっている	-2282
じゃないか	-2283
価値がある	-2284
考えている	-2285
▁Roman	-2286
であることを	-2287
んじゃなくて	-2288
▁things	-2289
2%	-2290
29	-2291
ft	-2292
ph	-2293
▁M	-2294
▁の	-2295
。)	-2296
かる	-2297
げえ	-2298
ごめ	-2299
さし	-2300
と呼	-2301
と言	-2302
に変	-2303
の発	-2304
やれ	-2305
イメ	-2306
スの	-2307
バア	-2308
フレ	-2309
主張	-2310
人と	-2311
付き	-2312
使う	-2313
倦怠	-2314
出た	-2315
切り	-2316
吐き	-2317
回線	-2318
地球	-2319
子の	-2320
性質	-2321
想定	-2322
普遍	-2323
物を	-2324
生命	-2325
知識	-2326
自信	-2327
良く	-2328
評価	-2329
金成	-2330
ous	-2331
put	-2332
▁1:	-2333
▁fe	-2334
▁これ	-2335
いえば	-2336
かける	-2337
こない	-2338
すすめ	-2339
やる気	-2340
らせる	-2341
わけだ	-2342
んだい	-2343
んだと	-2344
京介の	-2345
相手は	-2346
言葉は	-2347
読んで	-2348
音楽を	-2349
nder	-2350
ther	-2351
されない	-2352
そこから	-2353
のであり	-2354
の全てを	-2355
んですか	-2356
京介さん	-2357
見えない	-2358
違いない	-2359
erest	-2360
▁more	-2361
してしまう	-2362
その代わり	-2363
エレキテル	-2364
と思っている	-2365
):	-2366
40	-2367
じる	-2368
なき	-2369
に向	-2370
イケ	-2371
カイ	-2372
クシ	-2373
下に	-2374
効果	-2375
執着	-2376
日目	-2377
様に	-2378
流行	-2379
発狂	-2380
真の	-2381
真似	-2382
要求	-2383
認知	-2384
質問	-2385
足り	-2386
進行	-2387
ond	-2388
ree	-2389
―――	-2390
▁0.	-2391
▁ar	-2392
かつて	-2393
からは	-2394
そこで	-2395
などの	-2396
にしろ	-2397
のうち	-2398
イライ	-2399
ピアノ	-2400
世界の	-2401
何かを	-2402
受ける	-2403
0000	-2404
ound	-2405
▁any	-2406
▁own	-2407
▁str	-2408
▁そんな	-2409
ありさま	-2410
おすすめ	-2411
ですよね	-2412
としては	-2413
んでしょ	-2414
イメージ	-2415
イライラ	-2416
スタック	-2417
足らない	-2418
としている	-2419
と思います	-2420
キリスト教	-2421
もしかしたら	-2422
▁interest	-2423
51	-2424
AN	-2425
ro	-2426
sh	-2427
▁が	-2428
▁そ	-2429
▁今	-2430
うに	-2431
くに	-2432
ござ	-2433
しき	-2434
ぜん	-2435
だか	-2436
は何	-2437
を有	-2438
一緒	-2439
中で	-2440
二度	-2441
側の	-2442
印象	-2443
去る	-2444
喜ぶ	-2445
基本	-2446
寝る	-2447
少女	-2448
座標	-2449
待ち	-2450
想像	-2451
手に	-2452
最大	-2453
点を	-2454
疑問	-2455
疲労	-2456
痛み	-2457
神が	-2458
興奮	-2459
解釈	-2460
議論	-2461
関数	-2462
ror	-2463
▁un	-2464
」→「	-2465
いても	-2466
してた	-2467
アタシ	-2468
ババア	-2469
上げる	-2470
信じる	-2471
取って	-2472
女性の	-2473
感じた	-2474
漫画の	-2475
貴方が	-2476
!!!(	-2477
cept	-2478
ight	-2479
ought	-2480
thing	-2481
いくらでも	-2482
ためだけに	-2483
という意味	-2484
プログラム	-2485
を持っている	-2486
21	-2487
53	-2488
BL	-2489
ag	-2490
おし	-2491
さと	-2492
しに	-2493
しら	-2494
ほか	-2495
るを	-2496
わん	-2497
ブラ	-2498
モン	-2499
リン	-2500
主人	-2501
仮説	-2502
修正	-2503
個人	-2504
右脳	-2505
天国	-2506
客観	-2507
当然	-2508
投げ	-2509
明確	-2510
昭和	-2511
来た	-2512
次元	-2513
欲望	-2514
泣き	-2515
犠牲	-2516
申し	-2517
真だ	-2518
終わ	-2519
能動	-2520
落と	-2521
襲い	-2522
近い	-2523
顔が	-2524
ice	-2525
ost	-2526
str	-2527
▁2、	-2528
▁no	-2529
▁ob	-2530
いいね	-2531
この際	-2532
しくて	-2533
するの	-2534
そっち	-2535
たない	-2536
っさい	-2537
とかさ	-2538
のもの	-2539
の数々	-2540
ましい	-2541
まれた	-2542
もなく	-2543
ブログ	-2544
レート	-2545
人格が	-2546
作って	-2547
全てを	-2548
忘れて	-2549
思い出	-2550
本当は	-2551
楽しい	-2552
過学習	-2553
)・・・	-2554
aded	-2555
here	-2556
ning	-2557
owel	-2558
▁exp	-2559
▁マサ子	-2560
いいんだ	-2561
があって	-2562
この世で	-2563
すべてを	-2564
そこには	-2565
それだけ	-2566
だなんて	-2567
ねえんだ	-2568
やりたい	-2569
代わりに	-2570
何故なら	-2571
具体的に	-2572
馬鹿馬鹿	-2573
3%82%	-2574
ction	-2575
▁time	-2576
▁what	-2577
▁ワタシは	-2578
してくれる	-2579
どのように	-2580
を繰り返す	-2581
彦左衛門が	-2582
彦左衛門は	-2583
▁about	-2584
▁again	-2585
▁audio	-2586
▁every	-2587
というものを	-2588
)、	-2589
['	-2590
^^	-2591
いち	-2592
きわ	-2593
こも	-2594
つは	-2595
まし	-2596
を愛	-2597
んが	-2598
キー	-2599
マン	-2600
ルの	-2601
ーが	-2602
上の	-2603
余裕	-2604
作成	-2605
傾向	-2606
優位	-2607
優越	-2608
入り	-2609
判断	-2610
嘲り	-2611
変わ	-2612
契約	-2613
張り	-2614
心が	-2615
性欲	-2616
悪口	-2617
抜け	-2618
方の	-2619
欺瞞	-2620
満足	-2621
理想	-2622
男と	-2623
発想	-2624
知る	-2625
知恵	-2626
設計	-2627
距離	-2628
長年	-2629
間の	-2630
限界	-2631
障害	-2632
音素	-2633
ope	-2634
ory	-2635
rag	-2636
wor	-2637
▁1、	-2638
▁2:	-2639
▁pl	-2640
▁私の	-2641
あえて	-2642
いかに	-2643
おいて	-2644
が必要	-2645
この俺	-2646
ちがう	-2647
ぢゃあ	-2648
っきり	-2649
っつう	-2650
になに	-2651
のまま	-2652
の存在	-2653
まみれ	-2654
ものに	-2655
イント	-2656
ジャズ	-2657
ッシュ	-2658
ループ	-2659
世界は	-2660
向こう	-2661
嫌いな	-2662
憎しみ	-2663
日本語	-2664
木村が	-2665
木村の	-2666
いいから	-2667
からして	-2668
こうした	-2669
してくれ	-2670
そんなの	-2671
といえば	-2672
ないから	-2673
ましょう	-2674
▁love	-2675
▁スキゾフ	-2676
このように	-2677
することは	-2678
するための	-2679
してください	-2680
できなかった	-2681
自分にとって	-2682
が存在している	-2683
▁because	-2684
いいいいいいいい	-2685
41	-2686
44	-2687
58	-2688
——	-2689
▁7	-2690
●●	-2691
かせ	-2692
での	-2693
ども	-2694
もち	-2695
をも	-2696
を一	-2697
テン	-2698
ネタ	-2699
不幸	-2700
人気	-2701
今度	-2702
体験	-2703
単語	-2704
名詞	-2705
向き	-2706
君は	-2707
場所	-2708
大量	-2709
妨害	-2710
将軍	-2711
政治	-2712
文法	-2713
本来	-2714
法則	-2715
著作	-2716
誰が	-2717
過去	-2718
限り	-2719
飛び	-2720
ake	-2721
ana	-2722
ath	-2723
▁ad	-2724
がった	-2725
こいつ	-2726
たちの	-2727
とある	-2728
なんの	-2729
の概念	-2730
まれて	-2731
を描く	-2732
んなる	-2733
三角形	-2734
世界が	-2735
成り立	-2736
▁inf	-2737
▁out	-2738
▁say	-2739
▁アナタ	-2740
いません	-2741
かなにか	-2742
してきた	-2743
そのため	-2744
その通り	-2745
たくさん	-2746
などとは	-2747
なんだろ	-2748
なんなら	-2749
まりない	-2750
・・・・	-2751
▁That	-2752
▁work	-2753
ことはない	-2754
するだろう	-2755
に違いない	-2756
ものはない	-2757
やってきた	-2758
ようするに	-2759
意味がない	-2760
最初っから	-2761
nderst	-2762
馬鹿馬鹿しい	-2763
おおおおおおおおおおおおおおおお	-2764
3,	-2765
AE	-2766
ep	-2767
su	-2768
▁8	-2769
▁僕	-2770
、1	-2771
えん	-2772
おぼ	-2773
の人	-2774
の形	-2775
まえ	-2776
を探	-2777
んか	-2778
オー	-2779
クセ	-2780
スが	-2781
ナル	-2782
パン	-2783
プラ	-2784
ワタ	-2785
主体	-2786
事象	-2787
信仰	-2788
入力	-2789
制作	-2790
名乗	-2791
君の	-2792
変化	-2793
変態	-2794
子を	-2795
実行	-2796
思想	-2797
思索	-2798
性は	-2799
愚か	-2800
手で	-2801
数値	-2802
発生	-2803
知ら	-2804
確率	-2805
買う	-2806
通常	-2807
ach	-2808
ces	-2809
ert	-2810
iff	-2811
ite	-2812
▁==	-2813
▁Lo	-2814
▁el	-2815
▁up	-2816
いじめ	-2817
いてる	-2818
お前に	-2819
すげえ	-2820
そこら	-2821
つけて	-2822
つける	-2823
まない	-2824
わらず	-2825
んでる	-2826
アイツ	-2827
エロい	-2828
テレビ	-2829
ベッド	-2830
ーチェ	-2831
以外に	-2832
全てが	-2833
絶対に	-2834
誰かに	-2835
ance	-2836
anga	-2837
ange	-2838
▁dis	-2839
▁has	-2840
▁ある日	-2841
おまけに	-2842
からです	-2843
こんなに	-2844
すらある	-2845
そうだな	-2846
のせいで	-2847
わたしは	-2848
を感じる	-2849
ワタクシ	-2850
思考操作	-2851
いなかった	-2852
そういった	-2853
そのとおり	-2854
それっぽい	-2855
▁words	-2856
しているのか	-2857
であるという	-2858
ではなかった	-2859
▁person	-2860
ynthesiz	-2861
なくてはならない	-2862
nderstand	-2863
ok	-2864
▁は	-2865
うつ	-2866
けん	-2867
げる	-2868
と見	-2869
に帰	-2870
ひた	-2871
ぶち	-2872
よろ	-2873
らを	-2874
を出	-2875
アイ	-2876
イク	-2877
リア	-2878
ルダ	-2879
体中	-2880
先に	-2881
八郎	-2882
内部	-2883
処理	-2884
別の	-2885
利益	-2886
前提	-2887
勝ち	-2888
半分	-2889
回し	-2890
大臣	-2891
子に	-2892
学者	-2893
宮崎	-2894
心に	-2895
挙動	-2896
振り	-2897
振る	-2898
日記	-2899
構成	-2900
機械	-2901
欲し	-2902
照射	-2903
特有	-2904
登場	-2905
移入	-2906
空間	-2907
義務	-2908
親父	-2909
訓練	-2910
調べ	-2911
調整	-2912
身に	-2913
身を	-2914
音の	-2915
頭が	-2916
are	-2917
itt	-2918
▁京子	-2919
いうと	-2920
いえる	-2921
いやだ	-2922
おとう	-2923
かもが	-2924
するが	-2925
ついに	-2926
つもり	-2927
といい	-2928
の人間	-2929
はどう	-2930
ますね	-2931
もしや	-2932
わけで	-2933
を見た	-2934
ヤツは	-2935
一種の	-2936
主人公	-2937
今日は	-2938
大自然	-2939
平八郎	-2940
思いつ	-2941
目に見	-2942
続けて	-2943
襲い掛	-2944
reat	-2945
▁pro	-2946
▁貴方は	-2947
あたかも	-2948
あなたが	-2949
いつでも	-2950
いらない	-2951
じっさい	-2952
なくとも	-2953
のである	-2954
のところ	-2955
ひたすら	-2956
んだけど	-2957
んだよね	-2958
ニュアン	-2959
ニーチェ	-2960
思考盗聴	-2961
言ってる	-2962
馬鹿げた	-2963
▁diff	-2964
すらしない	-2965
たくさんの	-2966
にならない	-2967
▁Start	-2968
ものではない	-2969
のかもしれない	-2970
▁thought	-2971
▁Preceding	-2972
5,	-2973
PT	-2974
ry	-2975
ys	-2976
▁6	-2977
▁な	-2978
♥」	-2979
、”	-2980
えず	-2981
ずめ	-2982
ずれ	-2983
ぜい	-2984
っけ	-2985
っそ	-2986
てた	-2987
でる	-2988
とな	-2989
へん	-2990
まな	-2991
まれ	-2992
ょう	-2993
わす	-2994
わず	-2995
ッパ	-2996
フト	-2997
ボロ	-2998
ヴァ	-2999
体系	-3000
作戦	-3001
十分	-3002
危険	-3003
原理	-3004
味方	-3005
圧倒	-3006
場の	-3007
天才	-3008
幻想	-3009
強制	-3010
次第	-3011
消え	-3012
満た	-3013
緊張	-3014
複雑	-3015
言動	-3016
話は	-3017
誤解	-3018
負け	-3019
道具	-3020
開発	-3021
ase	-3022
ast	-3023
ell	-3024
ism	-3025
▁4:	-3026
▁hi	-3027
▁vo	-3028
▁ある	-3029
▁天使	-3030
▁金成	-3031
およそ	-3032
かっこ	-3033
ったり	-3034
なのは	-3035
ませる	-3036
ーカー	-3037
付ける	-3038
何故か	-3039
意味を	-3040
敵対者	-3041
新たな	-3042
普通に	-3043
生きて	-3044
生じる	-3045
男性の	-3046
行為を	-3047
cess	-3048
▁mat	-3049
▁それで	-3050
たんなる	-3051
になると	-3052
に関する	-3053
ませんか	-3054
やってる	-3055
感情移入	-3056
最も醜い	-3057
追いかけ	-3058
ition	-3059
ですらある	-3060
なんだよな	-3061
なんですよ	-3062
についての	-3063
については	-3064
意味がある	-3065
最も美しい	-3066
行為のこと	-3067
▁exist	-3068
▁manga	-3069
▁right	-3070
▁world	-3071
それによって	-3072
っていうこと	-3073
なんでもない	-3074
▁Loaded	-3075
????????	-3076
▁phoneme	-3077
ーーーーーーーー	-3078
――――――――――――――――	-3079
((	-3080
(1	-3081
SE	-3082
ff	-3083
▁↓	-3084
▁私	-3085
うそ	-3086
がね	-3087
きに	-3088
しめ	-3089
すで	-3090
つづ	-3091
の王	-3092
ゆる	-3093
んや	-3094
んよ	-3095
ステ	-3096
バレ	-3097
マシ	-3098
モデ	-3099
一言	-3100
中傷	-3101
似た	-3102
回る	-3103
完成	-3104
家の	-3105
平和	-3106
形成	-3107
怒り	-3108
性の	-3109
悪く	-3110
普段	-3111
村江	-3112
根本	-3113
検証	-3114
構築	-3115
機能	-3116
死に	-3117
母親	-3118
無い	-3119
独り	-3120
生物	-3121
知覚	-3122
神に	-3123
科学	-3124
細工	-3125
統合	-3126
脳が	-3127
語り	-3128
読む	-3129
身の	-3130
身体	-3131
音階	-3132
食欲	-3133
ary	-3134
orm	-3135
▁po	-3136
▁俺は	-3137
あたり	-3138
くれて	-3139
してみ	-3140
ってな	-3141
つまり	-3142
ていた	-3143
にも関	-3144
のみを	-3145
やろう	-3146
を使う	-3147
んのか	-3148
ナニカ	-3149
ニック	-3150
ファン	-3151
ミング	-3152
不快に	-3153
世界に	-3154
以上の	-3155
受けて	-3156
合わせ	-3157
地獄の	-3158
抽象化	-3159
時から	-3160
気づく	-3161
name	-3162
▁How	-3163
▁his	-3164
いますか	-3165
さしずめ	-3166
せいぜい	-3167
そこまで	-3168
それでも	-3169
だからだ	-3170
ってきた	-3171
としたら	-3172
みたいに	-3173
わかるか	-3174
コーヒー	-3175
メスガキ	-3176
嫉妬する	-3177
嫌われる	-3178
繰り返す	-3179
▁feel	-3180
▁over	-3181
▁such	-3182
があるのか	-3183
という言葉	-3184
になります	-3185
ほうがいい	-3186
append	-3187
othing	-3188
▁There	-3189
にも関わらず	-3190
書かれている	-3191
そっちのほうが	-3192
でもなんでもない	-3193
AB	-3194
ZE	-3195
du	-3196
おの	-3197
さら	-3198
すが	-3199
せず	-3200
だわ	-3201
ねる	-3202
はね	-3203
ほら	-3204
んじ	-3205
ガン	-3206
サー	-3207
ジョ	-3208
ジー	-3209
ドラ	-3210
ハハ	-3211
バル	-3212
パラ	-3213
ンを	-3214
一般	-3215
人形	-3216
使い	-3217
共に	-3218
動き	-3219
名誉	-3220
後の	-3221
拒否	-3222
指摘	-3223
搾取	-3224
数字	-3225
文の	-3226
文句	-3227
暗喩	-3228
書く	-3229
服従	-3230
模倣	-3231
歌詞	-3232
正解	-3233
歴史	-3234
死ね	-3235
深淵	-3236
滑稽	-3237
点が	-3238
現れ	-3239
発見	-3240
神様	-3241
絵画	-3242
脳の	-3243
虐待	-3244
親切	-3245
調子	-3246
近づ	-3247
類の	-3248
魔法	-3249
ful	-3250
ian	-3251
res	-3252
▁pe	-3253
▁なぜ	-3254
▁彼は	-3255
くさい	-3256
さっき	-3257
したの	-3258
じつは	-3259
たちは	-3260
ついた	-3261
ついで	-3262
どっか	-3263
なきゃ	-3264
にすら	-3265
の場合	-3266
まんま	-3267
やばい	-3268
わけよ	-3269
を意味	-3270
んじゃ	-3271
キング	-3272
パター	-3273
一人で	-3274
一定の	-3275
以外の	-3276
宮崎駿	-3277
男性は	-3278
笑い声	-3279
純粋に	-3280
観測者	-3281
誰かが	-3282
100%	-3283
idic	-3284
olog	-3285
▁sun	-3286
えるなら	-3287
が欲しい	-3288
するのか	-3289
だろうな	-3290
どんなに	-3291
なものを	-3292
のだろう	-3293
ればいい	-3294
んだから	-3295
イケメン	-3296
作られた	-3297
可能性が	-3298
自分には	-3299
観測結果	-3300
=1/4,	-3301
▁both	-3302
▁must	-3303
▁shad	-3304
からである	-3305
こういった	-3306
ことがない	-3307
ですらない	-3308
と思い込む	-3309
ようになる	-3310
興味がない	-3311
ragana	-3312
お願いします	-3313
とかそういう	-3314
49	-3315
Se	-3316
ie	-3317
to	-3318
いの	-3319
おそ	-3320
たる	-3321
のカ	-3322
ばか	-3323
もろ	-3324
オジ	-3325
ガブ	-3326
ボク	-3327
一見	-3328
不能	-3329
二人	-3330
働き	-3331
全然	-3332
劣等	-3333
同士	-3334
外に	-3335
大爆	-3336
定期	-3337
成長	-3338
持つ	-3339
権威	-3340
止ま	-3341
物質	-3342
現代	-3343
発言	-3344
盲目	-3345
絵が	-3346
続き	-3347
練習	-3348
緻密	-3349
背景	-3350
言説	-3351
計画	-3352
誤り	-3353
金術	-3354
音が	-3355
飽き	-3356
GPT	-3357
ise	-3358
now	-3359
the	-3360
urn	-3361
▁He	-3362
▁sa	-3363
▁和訳	-3364
いうが	-3365
うえで	-3366
お前ら	-3367
かわい	-3368
がいた	-3369
こうも	-3370
ここで	-3371
ざまな	-3372
ぜった	-3373
たびに	-3374
たんに	-3375
とかに	-3376
とすら	-3377
にまで	-3378
に行く	-3379
はこの	-3380
もんな	-3381
よりも	-3382
を持ち	-3383
テスト	-3384
ポーズ	-3385
世界を	-3386
今から	-3387
以下の	-3388
何一つ	-3389
信じて	-3390
倦怠感	-3391
初めて	-3392
単純に	-3393
去って	-3394
後から	-3395
思って	-3396
気分が	-3397
気分を	-3398
消えて	-3399
聞いた	-3400
能力が	-3401
自身が	-3402
自身の	-3403
見えた	-3404
言い換	-3405
起こす	-3406
錬金術	-3407
雰囲気	-3408
able	-3409
ible	-3410
▁one	-3411
▁our	-3412
▁sel	-3413
かという	-3414
こうして	-3415
ことから	-3416
ってもら	-3417
であれば	-3418
のための	-3419
はしない	-3420
はっはっ	-3421
んでした	-3422
クション	-3423
データを	-3424
ファイル	-3425
構わない	-3426
死んでも	-3427
閉じ込め	-3428
ality	-3429
ample	-3430
ility	-3431
▁cons	-3432
▁here	-3433
▁read	-3434
が存在する	-3435
しまいには	-3436
そしてその	-3437
というのも	-3438
とおもって	-3439
コーヒーを	-3440
!!!!!!	-3441
▁final	-3442
されていない	-3443
というものは	-3444
▁shadow	-3445
によく似ている	-3446
思考操作の神様	-3447
']	-3448
)1	-3449
NO	-3450
be	-3451
▁<	-3452
いを	-3453
えろ	-3454
お互	-3455
かと	-3456
かを	-3457
さっ	-3458
ちん	-3459
にい	-3460
みな	-3461
アリ	-3462
コロ	-3463
ナー	-3464
メロ	-3465
ラー	-3466
レス	-3467
レン	-3468
ーロ	-3469
作業	-3470
例外	-3471
僕を	-3472
力の	-3473
反駁	-3474
口調	-3475
困る	-3476
困難	-3477
姿を	-3478
小さ	-3479
幸せ	-3480
底辺	-3481
座に	-3482
微笑	-3483
恣意	-3484
愚弄	-3485
懐柔	-3486
戦争	-3487
教会	-3488
教師	-3489
断定	-3490
最悪	-3491
最終	-3492
期待	-3493
止め	-3494
決定	-3495
注意	-3496
消し	-3497
滅亡	-3498
無論	-3499
猫の	-3500
盗み	-3501
目は	-3502
真っ	-3503
知的	-3504
突き	-3505
統制	-3506
絵は	-3507
続く	-3508
美味	-3509
視聴	-3510
説得	-3511
責任	-3512
贅沢	-3513
金を	-3514
音を	-3515
顔は	-3516
風の	-3517
com	-3518
cre	-3519
▁*/	-3520
▁Wh	-3521
▁nǐ	-3522
▁ああ	-3523
▁では	-3524
▁もし	-3525
あれは	-3526
がする	-3527
が好き	-3528
そうさ	-3529
そりゃ	-3530
たちが	-3531
と言う	-3532
の正体	-3533
まとも	-3534
わかん	-3535
んだか	-3536
アルゴ	-3537
コミュ	-3538
マンコ	-3539
モデル	-3540
一つの	-3541
不快な	-3542
付けて	-3543
作品を	-3544
副長に	-3545
受け入	-3546
意味で	-3547
最後に	-3548
消えた	-3549
無価値	-3550
誰かの	-3551
=1/6	-3552
▁And	-3553
▁des	-3554
▁now	-3555
うううう	-3556
があると	-3557
こっちは	-3558
しないで	-3559
しません	-3560
だめだよ	-3561
ついでに	-3562
ところが	-3563
なんだが	-3564
なんです	-3565
のことだ	-3566
ひとつの	-3567
ふたなり	-3568
やること	-3569
ネットで	-3570
ライオン	-3571
何の意味	-3572
思い通り	-3573
成り立つ	-3574
気づいた	-3575
気のせい	-3576
精神的に	-3577
話しかけ	-3578
vowel	-3579
あまりにも	-3580
さまざまな	-3581
されていた	-3582
しかいない	-3583
してほしい	-3584
できるだけ	-3585
もうなにも	-3586
を見ている	-3587
んだからね	-3588
実のところ	-3589
彦左衛門の	-3590
持っている	-3591
[1][0]	-3592
ertain	-3593
▁never	-3594
▁ridic	-3595
しかしながら	-3596
アルゴリズム	-3597
segment	-3598
▁matter	-3599
ことができない	-3600
▁differe	-3601
▁meaning	-3602
▁思考操作の神様	-3603
することによって	-3604
～～～～～～～～	-3605
▁something	-3606
PM	-3607
ko	-3608
la	-3609
ps	-3610
▁9	-3611
▁?	-3612
▁だ	-3613
▁夢	-3614
▁大	-3615
お姉	-3616
が生	-3617
こん	-3618
ずつ	-3619
ずと	-3620
つに	-3621
と化	-3622
と同	-3623
なれ	-3624
に限	-3625
の元	-3626
はん	-3627
まう	-3628
よー	-3629
りん	-3630
イラ	-3631
タヌ	-3632
ダイ	-3633
チン	-3634
トリ	-3635
ニコ	-3636
ーザ	-3637
上記	-3638
中国	-3639
主観	-3640
人物	-3641
仕草	-3642
任意	-3643
作者	-3644
側が	-3645
僕に	-3646
共感	-3647
力で	-3648
呼応	-3649
喪失	-3650
声を	-3651
大大	-3652
失調	-3653
妬む	-3654
志向	-3655
恥ず	-3656
手足	-3657
批判	-3658
明示	-3659
映像	-3660
満ち	-3661
瀬戸	-3662
無力	-3663
物事	-3664
状況	-3665
環境	-3666
男を	-3667
的で	-3668
真に	-3669
示唆	-3670
結び	-3671
綺麗	-3672
置き	-3673
解決	-3674
返し	-3675
迫害	-3676
遊び	-3677
開始	-3678
頭に	-3679
.")	-3680
;;;	-3681
ati	-3682
ule	-3683
▁If	-3684
▁id	-3685
あああ	-3686
あげく	-3687
あろう	-3688
えると	-3689
この人	-3690
これで	-3691
すでに	-3692
ためし	-3693
だがな	-3694
としか	-3695
とても	-3696
にしか	-3697
の本質	-3698
の部分	-3699
ばれる	-3700
まれる	-3701
やすく	-3702
やっと	-3703
タヌキ	-3704
ホスト	-3705
ルール	-3706
一緒に	-3707
優しい	-3708
当たり	-3709
架空の	-3710
楽しま	-3711
欲しが	-3712
激しく	-3713
社会的	-3714
終わる	-3715
脳内で	-3716
行った	-3717
言い訳	-3718
誰一人	-3719
集スト	-3720
cond	-3721
irst	-3722
part	-3723
text	-3724
urch	-3725
▁それが	-3726
いっぱい	-3727
おります	-3728
がないと	-3729
されると	-3730
すべての	-3731
っちあげ	-3732
なくなり	-3733
になれる	-3734
ほんとう	-3735
むっちゃ	-3736
やる気が	-3737
インスタ	-3738
コミュニ	-3739
セックス	-3740
レベルの	-3741
一方的に	-3742
始まった	-3743
寝ている	-3744
悪いこと	-3745
統合失調	-3746
繰り返し	-3747
▁fact	-3748
▁hope	-3749
▁mind	-3750
▁than	-3751
おかあさん	-3752
くれないか	-3753
こうなった	-3754
ことができ	-3755
ことだった	-3756
しましょう	-3757
すればいい	-3758
そうなった	-3759
そのものが	-3760
なのである	-3761
ものがある	-3762
ケーション	-3763
ネーション	-3764
・・・?!	-3765
・・・?)	-3766
自分自身の	-3767
▁heart	-3768
▁other	-3769
しているんだ	-3770
ということで	-3771
なのだろうか	-3772
決まっている	-3773
▁church	-3774
ありがとうござ	-3775
▁nothing	-3776
▁understand	-3777
)4	-3778
0.	-3779
tt	-3780
we	-3781
▁K	-3782
▁う	-3783
▁か	-3784
▁訳	-3785
かよ	-3786
しだ	-3787
すこ	-3788
せば	-3789
っく	-3790
なか	-3791
ひど	-3792
も同	-3793
ゅう	-3794
らす	-3795
るか	-3796
るの	-3797
わせ	-3798
を保	-3799
ウェ	-3800
ニヤ	-3801
パー	-3802
不足	-3803
伏せ	-3804
伝え	-3805
位の	-3806
低い	-3807
可哀	-3808
喜び	-3809
塗り	-3810
嫌悪	-3811
従順	-3812
心は	-3813
性に	-3814
意義	-3815
我々	-3816
扱う	-3817
接続	-3818
教室	-3819
方に	-3820
方を	-3821
時が	-3822
有名	-3823
海を	-3824
無難	-3825
特定	-3826
発明	-3827
直接	-3828
相対	-3829
確か	-3830
称賛	-3831
移動	-3832
視線	-3833
言を	-3834
追加	-3835
退屈	-3836
逸脱	-3837
集中	-3838
麻薬	-3839
age	-3840
row	-3841
ser	-3842
▁wr	-3843
▁さて	-3844
▁私が	-3845
あるよ	-3846
おもう	-3847
かけて	-3848
からも	-3849
が出る	-3850
こわい	-3851
しまく	-3852
そこが	-3853
ちゃう	-3854
ってね	-3855
つけた	-3856
とかを	-3857
になら	-3858
のかね	-3859
のだが	-3860
のみが	-3861
のみで	-3862
ほどの	-3863
まくる	-3864
るんだ	-3865
わせる	-3866
を作り	-3867
インド	-3868
ジャー	-3869
チンコ	-3870
今度は	-3871
以上に	-3872
以前に	-3873
優越感	-3874
化する	-3875
可哀想	-3876
小さい	-3877
忘れる	-3878
楽しみ	-3879
永遠に	-3880
現れた	-3881
盗聴が	-3882
精神病	-3883
美しく	-3884
英語の	-3885
行為は	-3886
述べた	-3887
itch	-3888
ject	-3889
ness	-3890
urre	-3891
▁ple	-3892
▁reg	-3893
あなたは	-3894
さっさと	-3895
されます	-3896
だいたい	-3897
となって	-3898
どうなる	-3899
なにしろ	-3900
なんにも	-3901
にしても	-3902
はたして	-3903
ものです	-3904
られます	-3905
ジェクト	-3906
チャット	-3907
人がいる	-3908
思い浮か	-3909
昔っから	-3910
癖がある	-3911
的である	-3912
神を創造	-3913
足りない	-3914
▁fore	-3915
▁king	-3916
▁lost	-3917
▁self	-3918
▁すなわち	-3919
お義父さん	-3920
このような	-3921
にとっては	-3922
はずがない	-3923
もしかして	-3924
をしていた	-3925
副交感神経	-3926
彦左衛門に	-3927
統合失調症	-3928
でもなんでも	-3929
ということは	-3930
やりたくない	-3931
嫉妬している	-3932
嫌われている	-3933
でしかなかった	-3934
コミュニケーション	-3935
ええええええええええええええええ	-3936
'+	-3937
-%	-3938
0%	-3939
NE	-3940
YO	-3941
ll	-3942
▁さ	-3943
、4	-3944
が入	-3945
ぐる	-3946
さが	-3947
すり	-3948
そん	-3949
ぞれ	-3950
たり	-3951
にき	-3952
にし	-3953
ねー	-3954
らか	-3955
らせ	-3956
を生	-3957
を表	-3958
アア	-3959
エゴ	-3960
ナン	-3961
ネル	-3962
バッ	-3963
ボコ	-3964
一時	-3965
丈夫	-3966
二番	-3967
二重	-3968
交互	-3969
低下	-3970
体を	-3971
俺が	-3972
停止	-3973
光が	-3974
共有	-3975
凡庸	-3976
利用	-3977
前の	-3978
力は	-3979
努力	-3980
叫び	-3981
呼び	-3982
子は	-3983
実に	-3984
崩壊	-3985
強力	-3986
形の	-3987
悪役	-3988
愛を	-3989
感動	-3990
日に	-3991
日も	-3992
日常	-3993
時は	-3994
暗に	-3995
構文	-3996
権利	-3997
欠か	-3998
正常	-3999
残酷	-4000
演出	-4001
演奏	-4002
演技	-4003
点に	-4004
獲得	-4005
病気	-4006
発揮	-4007
目指	-4008
神話	-4009
絶望	-4010
耐え	-4011
色の	-4012
芝居	-4013
見抜	-4014
観客	-4015
記述	-4016
誰に	-4017
連鎖	-4018
関連	-4019
集団	-4020
餓鬼	-4021
000	-4022
ade	-4023
any	-4024
get	-4025
per	-4026
sol	-4027
ult	-4028
ush	-4029
▁11	-4030
▁Em	-4031
いねえ	-4032
かかわ	-4033
かせる	-4034
がなく	-4035
くせに	-4036
したく	-4037
してや	-4038
すこし	-4039
たから	-4040
ときに	-4041
めない	-4042
も同然	-4043
わるい	-4044
を得る	-4045
を理解	-4046
クライ	-4047
コイツ	-4048
シミュ	-4049
ソフト	-4050
バカに	-4051
ピンク	-4052
与える	-4053
丸暗記	-4054
事実を	-4055
優しく	-4056
単純な	-4057
地獄に	-4058
大爆笑	-4059
快楽に	-4060
意味の	-4061
感ずる	-4062
描ける	-4063
方向に	-4064
時間の	-4065
時間を	-4066
最大の	-4067
母さん	-4068
気が付	-4069
気に入	-4070
求める	-4071
言葉の	-4072
込んだ	-4073
音楽の	-4074
ople	-4075
sequ	-4076
vers	-4077
▁how	-4078
▁use	-4079
▁それを	-4080
▁平八郎	-4081
おじさん	-4082
きました	-4083
ことすら	-4084
ことなぞ	-4085
すべてが	-4086
するほど	-4087
それぞれ	-4088
ただそれ	-4089
ってくれ	-4090
どうする	-4091
のですか	-4092
の向こう	-4093
はっきり	-4094
イラスト	-4095
キャラが	-4096
不自然な	-4097
出てきた	-4098
承認欲求	-4099
操られて	-4100
書かれて	-4101
欲しがる	-4102
聞こえる	-4103
能がない	-4104
right	-4105
▁happ	-4106
▁said	-4107
▁アナタに	-4108
いっておく	-4109
かかわらず	-4110
かなかった	-4111
くっついて	-4112
ことになる	-4113
ことは真だ	-4114
させられる	-4115
することで	-4116
そのように	-4117
といわれた	-4118
と思われる	-4119
どうしても	-4120
になったら	-4121
のだろうか	-4122
まれている	-4123
らなかった	-4124
んじゃねえ	-4125
価値がない	-4126
続けている	-4127
udioSe	-4128
▁there	-4129
▁エレキテル	-4130
そんなものは	-4131
であることが	-4132
なにもかもが	-4133
にどのような	-4134
ませんでした	-4135
信じられない	-4136
襲い掛かって	-4137
phoneme	-4138
ulation	-4139
▁people	-4140
にもかかわらず	-4141
udioSegment	-4142
")	-4143
)+	-4144
,"	-4145
ip	-4146
oc	-4147
pe	-4148
py	-4149
▁に	-4150
⭐⭐	-4151
いえ	-4152
いし	-4153
くん	-4154
けれ	-4155
さに	-4156
たか	-4157
なす	-4158
に移	-4159
に陥	-4160
ねて	-4161
のし	-4162
の根	-4163
まて	-4164
まと	-4165
やな	-4166
オブ	-4167
グロ	-4168
ジュ	-4169
ソレ	-4170
ダム	-4171
テキ	-4172
トカ	-4173
トラ	-4174
ブリ	-4175
ブレ	-4176
ヘラ	-4177
マイ	-4178
ルは	-4179
一切	-4180
万能	-4181
不可	-4182
了解	-4183
会社	-4184
体の	-4185
使用	-4186
催眠	-4187
公開	-4188
別名	-4189
古来	-4190
合成	-4191
名の	-4192
周囲	-4193
基準	-4194
失明	-4195
学校	-4196
実装	-4197
実験	-4198
尊重	-4199
幻影	-4200
幼稚	-4201
弱者	-4202
彼氏	-4203
後に	-4204
従属	-4205
恨み	-4206
懸命	-4207
投稿	-4208
提案	-4209
数学	-4210
文明	-4211
曖昧	-4212
有効	-4213
機会	-4214
殺意	-4215
気力	-4216
済む	-4217
湧く	-4218
生理	-4219
疑念	-4220
破滅	-4221
私も	-4222
秘密	-4223
積み	-4224
管理	-4225
考慮	-4226
自動	-4227
至上	-4228
行く	-4229
訂正	-4230
運動	-4231
選択	-4232
邪魔	-4233
類似	-4234
飛ば	-4235
(?)	-4236
://	-4237
alk	-4238
ign	-4239
oll	-4240
ute	-4241
uth	-4242
val	-4243
wav	-4244
▁+=	-4245
▁/*	-4246
▁3、	-4247
▁er	-4248
▁さあ	-4249
▁よく	-4250
あとで	-4251
あるが	-4252
えてる	-4253
おらん	-4254
ができ	-4255
ここは	-4256
こりゃ	-4257
した時	-4258
するな	-4259
たとえ	-4260
っかく	-4261
っしゃ	-4262
っての	-4263
つかの	-4264
と言い	-4265
に行き	-4266
のにな	-4267
ひとり	-4268
もはや	-4269
やたら	-4270
よなあ	-4271
りんご	-4272
をなく	-4273
イエス	-4274
シック	-4275
モノの	-4276
一人の	-4277
人格は	-4278
他人を	-4279
伝える	-4280
大丈夫	-4281
振り向	-4282
本物の	-4283
決まり	-4284
漫画に	-4285
特有の	-4286
美少女	-4287
認めて	-4288
誰にも	-4289
ents	-4290
left	-4291
ount	-4292
ower	-4293
read	-4294
▁bet	-4295
▁had	-4296
▁may	-4297
▁par	-4298
▁shì	-4299
あっても	-4300
いうこと	-4301
いていた	-4302
いわれて	-4303
おそらく	-4304
この世に	-4305
これらの	-4306
しかねえ	-4307
しますか	-4308
し続ける	-4309
する必要	-4310
だったり	-4311
ちゃんは	-4312
ったんだ	-4313
とされる	-4314
なんとも	-4315
における	-4316
の全てが	-4317
の全ては	-4318
やったら	-4319
テキスト	-4320
信じない	-4321
出せない	-4322
嫌われて	-4323
発達した	-4324
目の前の	-4325
騙される	-4326
stack	-4327
▁know	-4328
▁need	-4329
▁show	-4330
いたします	-4331
ができない	-4332
しなかった	-4333
じゃないの	-4334
すらいない	-4335
そのものを	-4336
それ以外に	-4337
たくもない	-4338
っつうのは	-4339
ってんのか	-4340
というなら	-4341
なんですか	-4342
もうだめだ	-4343
タイミング	-4344
組み合わせ	-4345
selves	-4346
▁first	-4347
▁solve	-4348
▁story	-4349
▁worth	-4350
きわまりない	-4351
しているのだ	-4352
してしまった	-4353
と思い込んで	-4354
オブジェクト	-4355
▁contin	-4356
を意味している	-4357
人間というのは	-4358
▁against	-4359
▁concept	-4360
しなければならない	-4361
▁themselves	-4362
!(	-4363
)」	-4364
**	-4365
.)	-4366
7(	-4367
AF	-4368
ND	-4369
NS	-4370
lu	-4371
oy	-4372
▁カ	-4373
あて	-4374
いだ	-4375
うす	-4376
うど	-4377
おけ	-4378
くそ	-4379
しの	-4380
すか	-4381
たの	-4382
とて	-4383
に反	-4384
に繋	-4385
の例	-4386
の手	-4387
の長	-4388
ふり	-4389
ほぼ	-4390
みの	-4391
やだ	-4392
ろん	-4393
をと	-4394
を示	-4395
イズ	-4396
オト	-4397
キュ	-4398
シカ	-4399
スマ	-4400
タン	-4401
ダメ	-4402
デレ	-4403
ヌケ	-4404
バー	-4405
ホモ	-4406
モテ	-4407
ラク	-4408
位に	-4409
作家	-4410
偉い	-4411
入る	-4412
具合	-4413
動詞	-4414
地位	-4415
堀田	-4416
大抵	-4417
失敗	-4418
完璧	-4419
幼児	-4420
強く	-4421
後ろ	-4422
手の	-4423
推し	-4424
教え	-4425
数の	-4426
文化	-4427
未知	-4428
本物	-4429
殺人	-4430
洋服	-4431
浴び	-4432
深く	-4433
独自	-4434
目撃	-4435
相当	-4436
着く	-4437
確認	-4438
立派	-4439
系の	-4440
終了	-4441
絶頂	-4442
罪を	-4443
考察	-4444
脳に	-4445
行き	-4446
言わ	-4447
記号	-4448
話す	-4449
話だ	-4450
詳細	-4451
返事	-4452
運命	-4453
遠い	-4454
適応	-4455
風に	-4456
風景	-4457
/((	-4458
6%8	-4459
6%9	-4460
oss	-4461
pen	-4462
uty	-4463
▁4、	-4464
▁Ch	-4465
▁So	-4466
▁ey	-4467
▁te	-4468
▁うわ	-4469
いずれ	-4470
かんじ	-4471
がよい	-4472
しかた	-4473
その場	-4474
それと	-4475
ちゃら	-4476
でない	-4477
とかの	-4478
と感じ	-4479
どこか	-4480
ないな	-4481
の音声	-4482
はずだ	-4483
までに	-4484
やつら	-4485
ります	-4486
エネル	-4487
カフェ	-4488
サーバ	-4489
スティ	-4490
プット	-4491
プラグ	-4492
ベクト	-4493
マヌケ	-4494
リング	-4495
上げた	-4496
人々を	-4497
人から	-4498
仲良く	-4499
作れる	-4500
入れ替	-4501
劣等感	-4502
彼等は	-4503
性的な	-4504
持って	-4505
楽しむ	-4506
止める	-4507
渡した	-4508
漫画は	-4509
現れる	-4510
理論を	-4511
男性が	-4512
知能が	-4513
著作権	-4514
起きて	-4515
fire	-4516
ions	-4517
just	-4518
path	-4519
rate	-4520
ress	-4521
ttps	-4522
▁...	-4523
▁But	-4524
▁get	-4525
▁let	-4526
▁lif	-4527
▁she	-4528
▁ワタシ	-4529
あたって	-4530
おしえて	-4531
お前には	-4532
けている	-4533
すぐさま	-4534
するべき	-4535
するもの	-4536
それなら	-4537
そろそろ	-4538
でないと	-4539
でもいい	-4540
なのです	-4541
なんだぞ	-4542
ねえから	-4543
られると	-4544
わたしの	-4545
を使って	-4546
を受ける	-4547
を超えた	-4548
エネルギ	-4549
キャラを	-4550
メジャー	-4551
例外なく	-4552
嫌われた	-4553
定期的に	-4554
最終的に	-4555
物理的に	-4556
者である	-4557
見ている	-4558
言われる	-4559
))/((	-4560
3%83%	-4561
▁comm	-4562
▁text	-4563
▁when	-4564
ありのまま	-4565
いいんだよ	-4566
がないから	-4567
そういうの	-4568
そうやって	-4569
そのために	-4570
それでいて	-4571
やってきて	-4572
カフェイン	-4573
コード進行	-4574
・・・?」	-4575
価値のある	-4576
言っていた	-4577
arning	-4578
しか能がない	-4579
すらできない	-4580
のでしょうか	-4581
可能性がある	-4582
彦左衛門さん	-4583
インターネット	-4584
('	-4585
BA	-4586
BG	-4587
OO	-4588
VS	-4589
cc	-4590
za	-4591
▁娘	-4592
、3	-4593
あー	-4594
いな	-4595
きの	-4596
けの	-4597
つな	-4598
とし	-4599
どっ	-4600
どの	-4601
の本	-4602
ぶん	-4603
めに	-4604
るし	-4605
れは	-4606
を送	-4607
アタ	-4608
イド	-4609
エル	-4610
オヤ	-4611
ゴン	-4612
スカ	-4613
ダヤ	-4614
ッタ	-4615
ナウ	-4616
マル	-4617
リカ	-4618
ログ	-4619
事件	-4620
人も	-4621
人材	-4622
今後	-4623
仕掛	-4624
代物	-4625
伸ば	-4626
作用	-4627
信号	-4628
修道	-4629
出会	-4630
動く	-4631
可愛	-4632
名を	-4633
喋る	-4634
嘘を	-4635
因果	-4636
報告	-4637
大切	-4638
奪い	-4639
姿で	-4640
安定	-4641
完了	-4642
宣言	-4643
希望	-4644
成立	-4645
所に	-4646
手段	-4647
探求	-4648
日は	-4649
是非	-4650
機嫌	-4651
段階	-4652
汚い	-4653
爆発	-4654
生贄	-4655
発展	-4656
秩序	-4657
紙に	-4658
者と	-4659
脅威	-4660
自作	-4661
覚醒	-4662
観念	-4663
許す	-4664
趣味	-4665
追い	-4666
途端	-4667
遠ざ	-4668
遺伝	-4669
錯覚	-4670
限定	-4671
障碍	-4672
面を	-4673
領域	-4674
顔で	-4675
飲み	-4676
～」	-4677
BGM	-4678
ick	-4679
ics	-4680
not	-4681
uch	-4682
vel	-4683
āng	-4684
▁1.	-4685
▁20	-4686
▁ke	-4687
▁qu	-4688
うまく	-4689
きます	-4690
こちら	-4691
しそう	-4692
しては	-4693
しらん	-4694
だけさ	-4695
つって	-4696
とかで	-4697
とかは	-4698
とだけ	-4699
どこに	-4700
なしの	-4701
なので	-4702
に依存	-4703
のかが	-4704
の悪い	-4705
の関係	-4706
やめろ	-4707
を取り	-4708
を引き	-4709
アクセ	-4710
カイト	-4711
シャツ	-4712
トカゲ	-4713
ユダヤ	-4714
ユーザ	-4715
京介が	-4716
人って	-4717
人には	-4718
以外は	-4719
作品は	-4720
出来事	-4721
場合は	-4722
外に出	-4723
好きだ	-4724
嫉妬に	-4725
嫌われ	-4726
張って	-4727
当てる	-4728
忘れた	-4729
悪しき	-4730
振る舞	-4731
時代の	-4732
最後の	-4733
概念を	-4734
構造を	-4735
次第に	-4736
第一に	-4737
置き換	-4738
行為が	-4739
言い方	-4740
認める	-4741
読み取	-4742
誰もが	-4743
連れて	-4744
黙って	-4745
ason	-4746
emon	-4747
koza	-4748
ving	-4749
▁end	-4750
▁run	-4751
▁sin	-4752
▁spl	-4753
▁way	-4754
▁貴方の	-4755
いわせて	-4756
おしまい	-4757
おのずと	-4758
ことしか	-4759
こんなの	-4760
されたら	-4761
されても	-4762
したから	-4763
したこと	-4764
した結果	-4765
するのが	-4766
せっかく	-4767
そうだね	-4768
そのまま	-4769
その結果	-4770
たいなら	-4771
ってわけ	-4772
つうのも	-4773
つまらん	-4774
といえる	-4775
となると	-4776
どうやら	-4777
なにかの	-4778
なれない	-4779
にしては	-4780
のですよ	-4781
もう何も	-4782
やりかた	-4783
よくない	-4784
をつけて	-4785
を与えて	-4786
コードの	-4787
メロディ	-4788
思い込み	-4789
自分から	-4790
言わない	-4791
閉じこも	-4792
騙されて	-4793
uring	-4794
world	-4795
wwwww	-4796
―――――	-4797
▁Gree	-4798
▁else	-4799
▁even	-4800
▁open	-4801
▁were	-4802
▁なぜなら	-4803
があるから	-4804
があるだろ	-4805
がなかった	-4806
くらいなら	-4807
しなければ	-4808
だけだった	-4809
だったのか	-4810
だったんだ	-4811
できますか	-4812
でっちあげ	-4813
というんだ	-4814
といわれる	-4815
になってる	-4816
に向かって	-4817
を見ていた	-4818
クラシック	-4819
好きになる	-4820
話しかけて	-4821
都合のいい	-4822
▁creat	-4823
▁error	-4824
▁power	-4825
▁would	-4826
どうでもいい	-4827
のではないか	-4828
ままならない	-4829
わかりません	-4830
人間にとって	-4831
理解できない	-4832
になっちゃった	-4833
kozaemon	-4834
sequence	-4835
▁certain	-4836
イントネーション	-4837
▁continue	-4838
!!!!!!!!!!	-4839
')	-4840
)2	-4841
AR	-4842
▁>	-4843
▁[	-4844
▁や	-4845
▁何	-4846
▁俺	-4847
▁偽	-4848
▁昔	-4849
、2	-4850
、5	-4851
々の	-4852
」、	-4853
かか	-4854
が悪	-4855
きれ	-4856
くさ	-4857
すく	-4858
ちや	-4859
つい	-4860
どれ	-4861
なじ	-4862
ねん	-4863
の所	-4864
まわ	-4865
を代	-4866
を伴	-4867
を欲	-4868
を買	-4869
アト	-4870
カル	-4871
ガイ	-4872
シー	-4873
セル	-4874
ダー	-4875
ハッ	-4876
ブス	-4877
ブツ	-4878
ポケ	-4879
ーい	-4880
ーッ	-4881
一瞬	-4882
不定	-4883
不審	-4884
中心	-4885
企業	-4886
位で	-4887
体に	-4888
値が	-4889
内で	-4890
再生	-4891
写真	-4892
出力	-4893
動物	-4894
原始	-4895
同化	-4896
君に	-4897
問答	-4898
変な	-4899
天空	-4900
対話	-4901
展開	-4902
幻聴	-4903
当時	-4904
形で	-4905
怖い	-4906
成功	-4907
手が	-4908
挙げ	-4909
果て	-4910
栄養	-4911
機構	-4912
欠陥	-4913
死体	-4914
気球	-4915
無し	-4916
生涯	-4917
皆無	-4918
監視	-4919
真面	-4920
脳を	-4921
苦し	-4922
覗き	-4923
訴え	-4924
謙虚	-4925
返答	-4926
避け	-4927
配列	-4928
関心	-4929
陳腐	-4930
集合	-4931
預言	-4932
顕現	-4933
風刺	-4934
飛躍	-4935
!??	-4936
0%8	-4937
=4,	-4938
SNS	-4939
ove	-4940
rib	-4941
ual	-4942
way	-4943
▁ro	-4944
▁どう	-4945
▁ねえ	-4946
▁将軍	-4947
えます	-4948
および	-4949
がどう	-4950
ことさ	-4951
さすが	-4952
ざるを	-4953
し続け	-4954
ちっぽ	-4955
ってえ	-4956
ときは	-4957
とその	-4958
なくな	-4959
ねえし	-4960
のよう	-4961
の一種	-4962
の名前	-4963
ばっか	-4964
までの	-4965
みれば	-4966
もいい	-4967
もそう	-4968
を作成	-4969
を出す	-4970
を行う	-4971
アイデ	-4972
アント	-4973
オヤジ	-4974
サービ	-4975
シチュ	-4976
スター	-4977
ットの	-4978
ピエロ	-4979
マニュ	-4980
ンプト	-4981
一気に	-4982
上げて	-4983
不定詞	-4984
中身が	-4985
京介を	-4986
何かが	-4987
作品の	-4988
価値が	-4989
価値観	-4990
修道士	-4991
加えて	-4992
右大臣	-4993
問いか	-4994
問題は	-4995
変わる	-4996
大きな	-4997
女性が	-4998
妄想が	-4999
客観的	-5000
少しは	-5001
心理学	-5002
必要性	-5003
忘れ去	-5004
推し量	-5005
方法は	-5006
正当化	-5007
死ぬ程	-5008
気分は	-5009
点から	-5010
生じた	-5011
生まれ	-5012
盗聴に	-5013
目が見	-5014
精神性	-5015
紙芝居	-5016
考えろ	-5017
被害者	-5018
重要な	-5019
馬鹿に	-5020
%92%	-5021
ener	-5022
ined	-5023
rror	-5024
▁app	-5025
▁cra	-5026
▁did	-5027
▁per	-5028
▁pol	-5029
▁res	-5030
▁アンタ	-5031
▁今日も	-5032
▁貴方に	-5033
お前らは	-5034
これほど	-5035
これらは	-5036
したもの	-5037
したんだ	-5038
するのだ	-5039
ぜったい	-5040
そのうち	-5041
その上で	-5042
それすら	-5043
だったし	-5044
ちっぽけ	-5045
ったこと	-5046
どこにも	-5047
になにか	-5048
に見える	-5049
ますます	-5050
られたら	-5051
わざるを	-5052
んでいた	-5053
んなって	-5054
オジサン	-5055
ガブリエ	-5056
キャラは	-5057
タイプの	-5058
チャンス	-5059
人のこと	-5060
受け入れ	-5061
合わせて	-5062
気がする	-5063
生まれて	-5064
知的障害	-5065
結果的に	-5066
見ていて	-5067
ffect	-5068
▁left	-5069
これからは	-5070
これこそが	-5071
これだから	-5072
そのような	-5073
そんなもの	-5074
だとおもう	-5075
といっても	-5076
などという	-5077
なにもない	-5078
のかという	-5079
ストーカー	-5080
ニュアンス	-5081
プロンプト	-5082
マニュアル	-5083
・・・!」	-5084
似たような	-5085
彦左衛門を	-5086
影響を与え	-5087
恥ずかしい	-5088
指している	-5089
次のように	-5090
自分のこと	-5091
起きている	-5092
ations	-5093
second	-5094
urrent	-5095
yworld	-5096
▁could	-5097
▁そういって	-5098
されています	-5099
していただけ	-5100
そういうのを	-5101
そんなことを	-5102
わかりやすく	-5103
キャラクター	-5104
クライアント	-5105
描かれている	-5106
誰一人として	-5107
▁comple	-5108
▁object	-5109
▁strong	-5110
しているという	-5111
ではありません	-5112
存在していない	-5113
▁someone	-5114
行為のことである	-5115
ynthesized	-5116
▁regulation	-5117
.」	-5118
8,	-5119
HI	-5120
cy	-5121
lt	-5122
ma	-5123
ne	-5124
no	-5125
ud	-5126
xi	-5127
▁J	-5128
かき	-5129
がな	-5130
くく	-5131
くわ	-5132
さく	-5133
さず	-5134
さも	-5135
すと	-5136
そら	-5137
だい	-5138
だぞ	-5139
ちな	-5140
つべ	-5141
づけ	-5142
てえ	-5143
でい	-5144
に立	-5145
ねエ	-5146
の上	-5147
の二	-5148
の夢	-5149
の歌	-5150
の点	-5151
の間	-5152
はて	-5153
はめ	-5154
ばん	-5155
ぶり	-5156
ぶる	-5157
ほや	-5158
みえ	-5159
めろ	-5160
わな	-5161
を取	-5162
を失	-5163
を用	-5164
ウト	-5165
エピ	-5166
ガチ	-5167
キツ	-5168
クリ	-5169
タル	-5170
トル	-5171
ハイ	-5172
ハン	-5173
ピン	-5174
ミー	-5175
ルに	-5176
レズ	-5177
並べ	-5178
乗り	-5179
何だ	-5180
作画	-5181
保存	-5182
八百	-5183
出鱈	-5184
分類	-5185
動か	-5186
名義	-5187
呼ぶ	-5188
善悪	-5189
国は	-5190
国民	-5191
垣間	-5192
声で	-5193
変更	-5194
外の	-5195
多数	-5196
大概	-5197
好み	-5198
属性	-5199
幻覚	-5200
引く	-5201
形式	-5202
待つ	-5203
思念	-5204
揶揄	-5205
放棄	-5206
整理	-5207
文を	-5208
文脈	-5209
早い	-5210
映画	-5211
時期	-5212
期の	-5213
果た	-5214
殺し	-5215
殺害	-5216
法律	-5217
流れ	-5218
理屈	-5219
生殖	-5220
用の	-5221
病院	-5222
眼鏡	-5223
破綻	-5224
究極	-5225
粘着	-5226
約束	-5227
素材	-5228
結局	-5229
統計	-5230
絵に	-5231
絵の	-5232
美人	-5233
背負	-5234
舞台	-5235
色々	-5236
言及	-5237
記事	-5238
認定	-5239
誕生	-5240
誹謗	-5241
警戒	-5242
逆説	-5243
逆転	-5244
通じ	-5245
連想	-5246
達の	-5247
適切	-5248
陰謀	-5249
電話	-5250
高尚	-5251
5%8	-5252
=3,	-5253
=5,	-5254
BPM	-5255
IZE	-5256
cli	-5257
elp	-5258
ich	-5259
ict	-5260
nce	-5261
ons	-5262
àng	-5263
▁(1	-5264
▁01	-5265
▁12	-5266
▁No	-5267
▁[]	-5268
▁ve	-5269
▁wǒ	-5270
▁zh	-5271
▁いつ	-5272
いらん	-5273
おもし	-5274
かいて	-5275
がたい	-5276
がゆえ	-5277
が可能	-5278
が過ぎ	-5279
きたら	-5280
ごとに	-5281
さんと	-5282
したり	-5283
しちゃ	-5284
そんで	-5285
ちょっ	-5286
っくり	-5287
でいる	-5288
とりあ	-5289
と結婚	-5290
ないか	-5291
ならず	-5292
ならば	-5293
にすぎ	-5294
に書き	-5295
ねえな	-5296
のなら	-5297
の時代	-5298
ははは	-5299
はやく	-5300
ばれた	-5301
みます	-5302
みよう	-5303
めると	-5304
やつは	-5305
を仮定	-5306
を使用	-5307
を抱く	-5308
を覚え	-5309
を開始	-5310
んのさ	-5311
ウンコ	-5312
オーバ	-5313
キツネ	-5314
キャン	-5315
ジャン	-5316
チョコ	-5317
ティブ	-5318
ノート	-5319
バオト	-5320
プレゼ	-5321
ポート	-5322
モード	-5323
ヤルダ	-5324
リンチ	-5325
ワーク	-5326
二人の	-5327
人々の	-5328
人々は	-5329
人格の	-5330
以って	-5331
何かの	-5332
作り話	-5333
内容が	-5334
出せる	-5335
副長と	-5336
即座に	-5337
問いは	-5338
国家の	-5339
始まり	-5340
底から	-5341
引いて	-5342
強力な	-5343
彼女は	-5344
必要が	-5345
怪しい	-5346
悪口を	-5347
我々は	-5348
持ち物	-5349
描きた	-5350
新しく	-5351
日本の	-5352
時には	-5353
求めて	-5354
消える	-5355
特定の	-5356
現在の	-5357
発した	-5358
真実を	-5359
精神的	-5360
終わり	-5361
美しさ	-5362
考えは	-5363
苦しみ	-5364
表現が	-5365
見せる	-5366
覚えて	-5367
貴方に	-5368
超知能	-5369
閉じ込	-5370
難解な	-5371
音楽は	-5372
ered	-5373
ever	-5374
lish	-5375
ough	-5376
over	-5377
pect	-5378
rist	-5379
sing	-5380
thon	-5381
▁att	-5382
▁ide	-5383
▁len	-5384
▁off	-5385
▁spe	-5386
▁そうだ	-5387
▁そこに	-5388
うつ伏せ	-5389
があれば	-5390
がついて	-5391
が見える	-5392
されたい	-5393
した瞬間	-5394
してあげ	-5395
してねえ	-5396
ためには	-5397
だが私は	-5398
だろうね	-5399
ちやほや	-5400
ってある	-5401
ってきて	-5402
でなくて	-5403
という話	-5404
となった	-5405
とりわけ	-5406
どっちか	-5407
ないんだ	-5408
なんだな	-5409
のことか	-5410
はたから	-5411
やらない	-5412
ようつべ	-5413
を起こす	-5414
イエスキ	-5415
オマエを	-5416
ダイアト	-5417
フェース	-5418
ベクトル	-5419
ポイント	-5420
ランダム	-5421
ンスリエ	-5422
・・・。	-5423
一生懸命	-5424
人として	-5425
会いたい	-5426
出てきて	-5427
可能性を	-5428
因果関係	-5429
大好きな	-5430
心の中で	-5431
思い出す	-5432
恣意的な	-5433
持ってる	-5434
支配する	-5435
書かれた	-5436
気になる	-5437
海を観測	-5438
真面目に	-5439
知ってる	-5440
能動的に	-5441
見た目を	-5442
許される	-5443
誹謗中傷	-5444
=1/3,	-5445
ivity	-5446
▁They	-5447
▁char	-5448
▁come	-5449
▁evil	-5450
▁into	-5451
▁life	-5452
▁ment	-5453
▁talk	-5454
▁used	-5455
あるでしょ	-5456
かっこいい	-5457
があるんだ	-5458
くだらない	-5459
しまいます	-5460
するんだよ	-5461
そうしたら	-5462
そのまんま	-5463
そのものの	-5464
ってくれる	-5465
ってしまう	-5466
ってほしい	-5467
できること	-5468
といいたい	-5469
という結論	-5470
ないだろう	-5471
になれない	-5472
に至っては	-5473
のかもしれ	-5474
のであって	-5475
はちょっと	-5476
ものすごい	-5477
ものである	-5478
られていた	-5479
を意味する	-5480
んであって	-5481
インプット	-5482
コメントを	-5483
京介さんの	-5484
有している	-5485
認められる	-5486
vowels	-5487
▁where	-5488
お義父さんの	-5489
この世で最も	-5490
のがおすすめ	-5491
みたいな感じ	-5492
ように見える	-5493
シミュレート	-5494
ヤルダバオト	-5495
・・・・・・	-5496
▁Greece	-5497
▁import	-5498
▁reason	-5499
▁should	-5500
してはならない	-5501
そのようにして	-5502
なのでしょうか	-5503
よくわからない	-5504
イエスキリスト	-5505
ダイアトニック	-5506
生まれた時から	-5507
ological	-5508
ああああああああああああ	-5509
0,	-5510
7.	-5511
AD	-5512
AM	-5513
ID	-5514
TE	-5515
TM	-5516
])	-5517
az	-5518
ek	-5519
ha	-5520
hi	-5521
so	-5522
zy	-5523
▁U	-5524
▁よ	-5525
▁例	-5526
▁前	-5527
▁恋	-5528
♥♥	-5529
いら	-5530
かて	-5531
きみ	-5532
しな	-5533
すみ	-5534
だす	-5535
に従	-5536
に応	-5537
に於	-5538
に留	-5539
のね	-5540
の図	-5541
の母	-5542
の裏	-5543
へと	-5544
ゆん	-5545
よか	-5546
よし	-5547
を含	-5548
を無	-5549
を行	-5550
を重	-5551
んと	-5552
イレ	-5553
クロ	-5554
コマ	-5555
スケ	-5556
テク	-5557
ノー	-5558
バン	-5559
パワ	-5560
ボー	-5561
メタ	-5562
モチ	-5563
ラシ	-5564
ラム	-5565
レー	-5566
上手	-5567
下の	-5568
下手	-5569
中世	-5570
交換	-5571
侵略	-5572
僕も	-5573
元の	-5574
凌駕	-5575
出現	-5576
分野	-5577
切れ	-5578
刷り	-5579
動作	-5580
即興	-5581
厳密	-5582
去り	-5583
反対	-5584
反抗	-5585
君主	-5586
命題	-5587
基づ	-5588
声は	-5589
多少	-5590
娯楽	-5591
実現	-5592
容易	-5593
寝て	-5594
射精	-5595
左右	-5596
広告	-5597
度な	-5598
形態	-5599
心地	-5600
必須	-5601
思わ	-5602
意欲	-5603
所で	-5604
手放	-5605
技法	-5606
抜き	-5607
指定	-5608
探索	-5609
放置	-5610
教授	-5611
本を	-5612
来て	-5613
植え	-5614
検索	-5615
様の	-5616
残る	-5617
殺戮	-5618
比較	-5619
気味	-5620
水道	-5621
洞察	-5622
消す	-5623
消費	-5624
演じ	-5625
為に	-5626
照ら	-5627
物体	-5628
狭い	-5629
理を	-5630
百合	-5631
第二	-5632
納得	-5633
経験	-5634
続行	-5635
総て	-5636
置く	-5637
苦労	-5638
虚勢	-5639
詐欺	-5640
謂れ	-5641
近似	-5642
通信	-5643
通用	-5644
過ご	-5645
過剰	-5646
道徳	-5647
達は	-5648
雑多	-5649
音符	-5650
項目	-5651
髪の	-5652
ace	-5653
ail	-5654
eal	-5655
lig	-5656
med	-5657
own	-5658
▁00	-5659
▁=(	-5660
▁sy	-5661
▁tw	-5662
▁いや	-5663
▁ええ	-5664
▁はい	-5665
▁まず	-5666
▁まだ	-5667
▁アル	-5668
▁彼等	-5669
いいた	-5670
いれば	-5671
おかげ	-5672
おって	-5673
お前を	-5674
がいて	-5675
きらい	-5676
くれえ	-5677
この私	-5678
してて	-5679
すぐに	-5680
すべき	-5681
たちに	-5682
だのと	-5683
だれも	-5684
っしょ	-5685
でいい	-5686
と私は	-5687
と見做	-5688
なしで	-5689
なのが	-5690
なんや	-5691
のだと	-5692
の中の	-5693
の対象	-5694
はなん	-5695
はよく	-5696
ひどい	-5697
ふうに	-5698
まかり	-5699
むべき	-5700
ものか	-5701
もので	-5702
わした	-5703
を立て	-5704
を考え	-5705
んだけ	-5706
システ	-5707
テンツ	-5708
ディア	-5709
トーク	-5710
レクト	-5711
ワード	-5712
不細工	-5713
二度と	-5714
他人が	-5715
以前の	-5716
入れて	-5717
大きく	-5718
女性は	-5719
好かれ	-5720
好きで	-5721
嬉しい	-5722
宇宙の	-5723
少ない	-5724
思考を	-5725
悟った	-5726
情報の	-5727
感想を	-5728
捉える	-5729
文章は	-5730
無気力	-5731
無関心	-5732
無駄に	-5733
生きる	-5734
睡眠は	-5735
社会の	-5736
空気を	-5737
精神を	-5738
考えを	-5739
者には	-5740
見た目	-5741
言葉が	-5742
説得力	-5743
貴方を	-5744
食べる	-5745
nect	-5746
▁bea	-5747
▁dec	-5748
▁mom	-5749
▁なんか	-5750
いいのか	-5751
いかない	-5752
いくらい	-5753
いますぐ	-5754
おおいに	-5755
がいかに	-5756
がましい	-5757
こっちが	-5758
したいの	-5759
した上で	-5760
してみて	-5761
してみろ	-5762
しまくる	-5763
すべては	-5764
だがこの	-5765
ちょうど	-5766
ってるし	-5767
ってんだ	-5768
どうして	-5769
なにかを	-5770
なにより	-5771
のかって	-5772
のひとつ	-5773
のアニメ	-5774
のデータ	-5775
まくって	-5776
やめられ	-5777
よろしく	-5778
わないか	-5779
をかけて	-5780
を作って	-5781
を受けて	-5782
を見せる	-5783
を見ると	-5784
キャラで	-5785
システム	-5786
スティン	-5787
ナウシカ	-5788
ネコお姉	-5789
パターン	-5790
メンヘラ	-5791
・・・♥	-5792
上がった	-5793
人間とは	-5794
勝利至上	-5795
可能性は	-5796
向かって	-5797
女のこと	-5798
女の子の	-5799
存在すら	-5800
描いてる	-5801
描きたい	-5802
普遍的な	-5803
殺される	-5804
生まれる	-5805
allen	-5806
arget	-5807
ional	-5808
pping	-5809
▁call	-5810
▁comp	-5811
▁cond	-5812
▁eyes	-5813
▁help	-5814
▁look	-5815
▁mist	-5816
▁phys	-5817
▁prin	-5818
▁real	-5819
▁side	-5820
▁void	-5821
▁・・・(	-5822
ありえない	-5823
いいながら	-5824
いやしない	-5825
いろいろな	-5826
えなかった	-5827
えられない	-5828
おとうさん	-5829
されるのは	-5830
しくなって	-5831
したくなる	-5832
したほうが	-5833
してもらう	-5834
それだけで	-5835
だからです	-5836
だったのに	-5837
だのなんだ	-5838
であること	-5839
できません	-5840
というわけ	-5841
とりあえず	-5842
と思い込み	-5843
なのですが	-5844
なりません	-5845
になりたい	-5846
ねえんだぞ	-5847
のことだよ	-5848
ようがない	-5849
プレゼント	-5850
人のことを	-5851
回線の神様	-5852
私のことを	-5853
能力がない	-5854
行為である	-5855
justed	-5856
――――――	-5857
▁gener	-5858
▁input	-5859
▁still	-5860
▁works	-5861
▁偽彦左衛門	-5862
ありもしない	-5863
いっておくが	-5864
いつもいつも	-5865
それどころか	-5866
ということの	-5867
といっている	-5868
といわざるを	-5869
といわれたら	-5870
とおもいます	-5871
とおもうんだ	-5872
になりました	-5873
ようになった	-5874
ネットワーク	-5875
見られている	-5876
!!!!!!!	-5877
Warning	-5878
すればするほど	-5879
になってしまう	-5880
3%81%97%	-5881
インターフェース	-5882
クライアントソケット	-5883
""	-5884
",	-5885
)3	-5886
);	-5887
2,	-5888
6.	-5889
60	-5890
80	-5891
9)	-5892
AC	-5893
Am	-5894
BE	-5895
HO	-5896
If	-5897
ef	-5898
uò	-5899
zh	-5900
}.	-5901
▁一	-5902
、)	-5903
いけ	-5904
が増	-5905
きも	-5906
ぎゃ	-5907
ぎり	-5908
けっ	-5909
げん	-5910
ごろ	-5911
じい	-5912
せえ	-5913
たに	-5914
たれ	-5915
とら	-5916
と声	-5917
と宣	-5918
なう	-5919
に勝	-5920
に囚	-5921
に戻	-5922
に転	-5923
ねば	-5924
むず	-5925
めえ	-5926
めが	-5927
わよ	-5928
を加	-5929
を解	-5930
アッ	-5931
アメ	-5932
イヤ	-5933
ウウ	-5934
ウケ	-5935
オリ	-5936
カー	-5937
キス	-5938
キチ	-5939
スー	-5940
ソン	-5941
テイ	-5942
ハラ	-5943
ピュ	-5944
フル	-5945
マウ	-5946
ロリ	-5947
一文	-5948
不尽	-5949
予想	-5950
予測	-5951
二回	-5952
今の	-5953
他者	-5954
伝わ	-5955
作れ	-5956
俺に	-5957
倫理	-5958
催す	-5959
優先	-5960
元気	-5961
先ず	-5962
光の	-5963
内に	-5964
分岐	-5965
卑屈	-5966
原形	-5967
参考	-5968
反省	-5969
叫ぶ	-5970
同性	-5971
向上	-5972
吹き	-5973
呪い	-5974
唐突	-5975
唯一	-5976
嗜虐	-5977
回廊	-5978
固定	-5979
報酬	-5980
大衆	-5981
女で	-5982
女装	-5983
娘の	-5984
客体	-5985
害悪	-5986
害虫	-5987
導き	-5988
崇拝	-5989
平均	-5990
平気	-5991
年も	-5992
年齢	-5993
張る	-5994
形に	-5995
役で	-5996
彼を	-5997
我慢	-5998
挑発	-5999
描け	-6000
摂取	-6001
改善	-6002
数を	-6003
断言	-6004
施設	-6005
日々	-6006
日か	-6007
早く	-6008
明日	-6009
時中	-6010
殆ど	-6011
派の	-6012
焼き	-6013
猫耳	-6014
痛い	-6015
睡魔	-6016
神だ	-6017
範囲	-6018
繰り	-6019
習慣	-6020
耳に	-6021
脆弱	-6022
自ら	-6023
自立	-6024
萩尾	-6025
衝突	-6026
見返	-6027
語る	-6028
逃れ	-6029
達が	-6030
隠蔽	-6031
離れ	-6032
顔の	-6033
高校	-6034
(1,	-6035
)))	-6036
SEX	-6037
apt	-6038
ass	-6039
dim	-6040
ial	-6041
joy	-6042
maj	-6043
map	-6044
ura	-6045
vid	-6046
vis	-6047
▁bi	-6048
▁bl	-6049
▁fo	-6050
▁gr	-6051
▁kě	-6052
▁堀田	-6053
」、「	-6054
あいつ	-6055
あたし	-6056
えれば	-6057
かしら	-6058
からに	-6059
が多い	-6060
こそは	-6061
する者	-6062
その他	-6063
たうち	-6064
たちを	-6065
ていく	-6066
できて	-6067
どう思	-6068
なれる	-6069
にでも	-6070
になれ	-6071
に至る	-6072
ねえか	-6073
のちの	-6074
の原因	-6075
の問題	-6076
または	-6077
みると	-6078
もまた	-6079
もんの	-6080
れてる	-6081
を代入	-6082
を取る	-6083
を名乗	-6084
を想定	-6085
ガラク	-6086
ストラ	-6087
トイレ	-6088
ニコ静	-6089
バルベ	-6090
ビアン	-6091
ポップ	-6092
メモ帳	-6093
ライン	-6094
上がり	-6095
上記の	-6096
世界で	-6097
京介に	-6098
人々に	-6099
人生を	-6100
人間共	-6101
今まで	-6102
作者の	-6103
使って	-6104
創作を	-6105
去った	-6106
受け継	-6107
君には	-6108
嘘八百	-6109
大なる	-6110
始める	-6111
嫉妬は	-6112
子供の	-6113
存在し	-6114
存在を	-6115
小さな	-6116
左大臣	-6117
彼女の	-6118
必要な	-6119
快楽を	-6120
思考の	-6121
悪魔の	-6122
悲しみ	-6123
情報が	-6124
意志を	-6125
意見を	-6126
文章の	-6127
時間が	-6128
最近の	-6129
最高の	-6130
次元の	-6131
気づけ	-6132
漫画で	-6133
理不尽	-6134
症状が	-6135
目的で	-6136
知らず	-6137
私達は	-6138
程度の	-6139
結果が	-6140
自分と	-6141
表現の	-6142
表現を	-6143
見せて	-6144
見てる	-6145
言えば	-6146
言える	-6147
訴える	-6148
説明が	-6149
読者の	-6150
踏みに	-6151
部屋に	-6152
飲んだ	-6153
～～～	-6154
?!!?	-6155
ense	-6156
ific	-6157
iret	-6158
less	-6159
work	-6160
▁"""	-6161
▁10・	-6162
▁Eng	-6163
▁art	-6164
▁bre	-6165
▁cur	-6166
▁day	-6167
▁det	-6168
▁dre	-6169
▁ent	-6170
▁mod	-6171
▁ref	-6172
▁こんな	-6173
▁すると	-6174
▁それも	-6175
▁みんな	-6176
▁オマエ	-6177
いいこと	-6178
いきなり	-6179
いわれる	-6180
うわっつ	-6181
えてくる	-6182
くなった	-6183
くらいは	-6184
ことです	-6185
これって	-6186
させます	-6187
しばらく	-6188
すっかり	-6189
するだけ	-6190
するなら	-6191
するのに	-6192
ぜってえ	-6193
そうなる	-6194
ただ単に	-6195
ちゃんに	-6196
っちまう	-6197
と勘違い	-6198
どうした	-6199
どこかに	-6200
どちらか	-6201
なのでは	-6202
なんだと	-6203
にさせる	-6204
のテーマ	-6205
ものとは	-6206
りました	-6207
をかける	-6208
を持った	-6209
んじゃあ	-6210
アクセス	-6211
ガラクタ	-6212
コードを	-6213
サービス	-6214
スタイル	-6215
ポケモン	-6216
好かれる	-6217
愚かしい	-6218
描かれた	-6219
書いたら	-6220
木村さん	-6221
本質的に	-6222
死ぬまで	-6223
殺された	-6224
気づいて	-6225
気にする	-6226
気持ちが	-6227
気持ちを	-6228
決まった	-6229
私が神を	-6230
絶対的な	-6231
美少女の	-6232
考えても	-6233
耳鳴りが	-6234
行われる	-6235
見た目が	-6236
見られる	-6237
記憶喪失	-6238
音楽を聴	-6239
=1/20	-6240
arden	-6241
imura	-6242
▁beli	-6243
▁comb	-6244
▁idol	-6245
▁lead	-6246
▁long	-6247
▁mock	-6248
▁moon	-6249
▁most	-6250
▁pain	-6251
▁part	-6252
▁same	-6253
▁seem	-6254
▁あなたの	-6255
▁あるいは	-6256
▁たとえば	-6257
▁オマエの	-6258
いうことを	-6259
がめっちゃ	-6260
させられた	-6261
することも	-6262
だけであり	-6263
だったから	-6264
ちっぽけな	-6265
でなければ	-6266
という構図	-6267
という認識	-6268
なのかもし	-6269
にすぎない	-6270
になるんだ	-6271
ほしくない	-6272
もあります	-6273
ようだった	-6274
ガブリエル	-6275
コンテンツ	-6276
バルベーロ	-6277
レズビアン	-6278
去っていく	-6279
少なくとも	-6280
性質がある	-6281
感じられる	-6282
描いている	-6283
書いてある	-6284
最も醜い女	-6285
最も醜い男	-6286
本質的には	-6287
的な意味で	-6288
設計された	-6289
追いかけて	-6290
▁17:40	-6291
▁above	-6292
▁crazy	-6293
▁enjoy	-6294
▁https	-6295
▁inter	-6296
▁shame	-6297
▁voice	-6298
ありのままの	-6299
しかできない	-6300
したいという	-6301
そういうのは	-6302
そしてそれは	-6303
ってしまった	-6304
であることは	-6305
ということに	-6306
どうでもよい	-6307
どうでもよく	-6308
わけではない	-6309
んじゃないの	-6310
不快にさせる	-6311
勝利至上主義	-6312
最も美しい女	-6313
本当のことを	-6314
目に見えない	-6315
考えられない	-6316
atStack	-6317
raction	-6318
▁Christ	-6319
▁garden	-6320
▁moment	-6321
じゃないですか	-6322
する能力がない	-6323
そのものだった	-6324
のにも関わらず	-6325
hiragana	-6326
ynthesis	-6327
▁English	-6328
▁challen	-6329
▁forever	-6330
▁sockets	-6331
▁duration	-6332
▁hiragana	-6333
しなくてはならない	-6334
▁condition	-6335
ありがとうございます	-6336
wwwwwwwwwwww	-6337
0_	-6338
ST	-6339
ki	-6340
sy	-6341
ub	-6342
──	-6343
▁“	-6344
▁と	-6345
▁ね	-6346
▁シ	-6347
、0	-6348
」(	-6349
いさ	-6350
うな	-6351
うれ	-6352
かず	-6353
かは	-6354
かま	-6355
がた	-6356
さき	-6357
さは	-6358
せろ	-6359
たど	-6360
っす	-6361
とで	-6362
にち	-6363
にゃ	-6364
に据	-6365
に遭	-6366
ねじ	-6367
ねた	-6368
のや	-6369
の父	-6370
の表	-6371
は不	-6372
まち	-6373
めい	-6374
めの	-6375
やぞ	-6376
ゆめ	-6377
わい	-6378
をな	-6379
イト	-6380
オス	-6381
キリ	-6382
コフ	-6383
ゴキ	-6384
ッツ	-6385
バグ	-6386
ビュ	-6387
ピー	-6388
ポジ	-6389
ロボ	-6390
ンジ	-6391
ーフ	-6392
一回	-6393
一本	-6394
一部	-6395
並ぶ	-6396
中毒	-6397
事が	-6398
井上	-6399
今は	-6400
以て	-6401
似合	-6402
何千	-6403
何回	-6404
像を	-6405
優秀	-6406
兄者	-6407
共通	-6408
初期	-6409
別段	-6410
前で	-6411
割り	-6412
向に	-6413
吸い	-6414
呪文	-6415
命を	-6416
哀れ	-6417
四六	-6418
回す	-6419
土台	-6420
増加	-6421
壊滅	-6422
売り	-6423
変革	-6424
大体	-6425
大変	-6426
失う	-6427
奏で	-6428
奴ら	-6429
家に	-6430
将来	-6431
常に	-6432
強要	-6433
役割	-6434
後で	-6435
得る	-6436
復活	-6437
心情	-6438
恋人	-6439
愉快	-6440
愛に	-6441
手紙	-6442
抜く	-6443
拗ね	-6444
挑戦	-6445
提供	-6446
操る	-6447
星が	-6448
曲を	-6449
望む	-6450
期に	-6451
末路	-6452
極悪	-6453
歌を	-6454
殴る	-6455
母音	-6456
気付	-6457
滅多	-6458
物が	-6459
犯す	-6460
猫に	-6461
王の	-6462
痒み	-6463
発信	-6464
目覚	-6465
直観	-6466
眠り	-6467
眠気	-6468
磁波	-6469
空想	-6470
突如	-6471
突然	-6472
第三	-6473
経緯	-6474
英文	-6475
英雄	-6476
萌え	-6477
視座	-6478
言え	-6479
該当	-6480
課題	-6481
象徴	-6482
頭痛	-6483
飛行	-6484
高速	-6485
!?!	-6486
)+'	-6487
+1]	-6488
8%8	-6489
FTM	-6490
SHI	-6491
The	-6492
abe	-6493
col	-6494
den	-6495
dom	-6496
erg	-6497
lap	-6498
ose	-6499
uct	-6500
ven	-6501
▁Al	-6502
▁Gm	-6503
▁cl	-6504
▁np	-6505
▁sm	-6506
▁何故	-6507
▁彼の	-6508
▁時代	-6509
々しい	-6510
いいが	-6511
うつぶ	-6512
おとな	-6513
おぼろ	-6514
かいた	-6515
かした	-6516
からか	-6517
からさ	-6518
が強い	-6519
きった	-6520
きょう	-6521
くれよ	-6522
けれど	-6523
ここの	-6524
こっそ	-6525
ことか	-6526
ことと	-6527
ごめん	-6528
しがみ	-6529
しめる	-6530
すぎた	-6531
せいで	-6532
せめて	-6533
そうは	-6534
そこは	-6535
たまに	-6536
だなあ	-6537
っかけ	-6538
っとる	-6539
っぽど	-6540
とって	-6541
とでも	-6542
と認識	-6543
どこの	-6544
ないぞ	-6545
ないの	-6546
なのを	-6547
にも程	-6548
に入る	-6549
に出す	-6550
に基づ	-6551
に当た	-6552
のかを	-6553
のって	-6554
の数値	-6555
の方が	-6556
べつに	-6557
ほどに	-6558
までは	-6559
ゆうに	-6560
ようで	-6561
らせて	-6562
れたら	-6563
アッチ	-6564
ウェブ	-6565
オーケ	-6566
ガンダ	-6567
セット	-6568
タイム	-6569
チャン	-6570
ナンカ	-6571
パラメ	-6572
ヒント	-6573
ビッチ	-6574
ファー	-6575
ヤツが	-6576
ローマ	-6577
ーター	-6578
上がる	-6579
不名誉	-6580
人格に	-6581
人間と	-6582
任意の	-6583
催眠術	-6584
全体の	-6585
副長を	-6586
受け身	-6587
可能な	-6588
同士の	-6589
向ける	-6590
国家を	-6591
圧倒的	-6592
壮大な	-6593
変わり	-6594
大嫌い	-6595
天使は	-6596
女の顔	-6597
始まる	-6598
始めた	-6599
嫉妬の	-6600
待って	-6601
意志で	-6602
愛して	-6603
方法を	-6604
極めて	-6605
概念が	-6606
構造が	-6607
正体は	-6608
狂った	-6609
独り言	-6610
理解が	-6611
異なる	-6612
目に遭	-6613
目的に	-6614
社会に	-6615
簡単な	-6616
簡単に	-6617
純粋な	-6618
翻って	-6619
能力を	-6620
脳内に	-6621
自体は	-6622
自由に	-6623
興味が	-6624
苦しむ	-6625
英文の	-6626
覚える	-6627
言われ	-6628
言語は	-6629
読者は	-6630
誰かを	-6631
論理の	-6632
起きる	-6633
追いつ	-6634
電磁波	-6635
!!!)	-6636
7(9)	-6637
SIZE	-6638
ated	-6639
ency	-6640
fore	-6641
ious	-6642
rain	-6643
tern	-6644
time	-6645
turn	-6646
▁che	-6647
▁her	-6648
▁him	-6649
▁pop	-6650
▁なんで	-6651
▁もっと	-6652
ある程度	-6653
いたんだ	-6654
いったい	-6655
うつぶせ	-6656
おかげで	-6657
おもしろ	-6658
かくある	-6659
からくる	-6660
がなくて	-6661
けっこう	-6662
こいつも	-6663
こっそり	-6664
この私の	-6665
していき	-6666
しており	-6667
すぎるよ	-6668
するから	-6669
そうした	-6670
そうです	-6671
それでは	-6672
それらは	-6673
だがその	-6674
だけでは	-6675
だってさ	-6676
だとおも	-6677
ちなみに	-6678
ちゃんの	-6679
つかった	-6680
でいうと	-6681
というと	-6682
とかなん	-6683
ところに	-6684
とはまた	-6685
どうだい	-6686
なんだね	-6687
にはもう	-6688
に置き換	-6689
ねえのさ	-6690
のかすら	-6691
のが得意	-6692
のことが	-6693
のことも	-6694
の中では	-6695
はじめて	-6696
はそれを	-6697
まってる	-6698
められる	-6699
もらえば	-6700
やりとり	-6701
よっぽど	-6702
らしいが	-6703
りゃいい	-6704
ることで	-6705
わかるよ	-6706
アンタは	-6707
コフ連鎖	-6708
ネットの	-6709
マインド	-6710
・・・;	-6711
人間って	-6712
以前から	-6713
倍くらい	-6714
副長さん	-6715
取られた	-6716
四六時中	-6717
女の子が	-6718
強制的に	-6719
描けない	-6720
書き込み	-6721
気がない	-6722
無意識の	-6723
絵を描く	-6724
自由意志	-6725
興味深い	-6726
見ていた	-6727
言いたい	-6728
言い当て	-6729
言う事を	-6730
誰からも	-6731
象さんの	-6732
踏みにじ	-6733
=1/12	-6734
Error	-6735
ating	-6736
▁Your	-6737
▁data	-6738
▁down	-6739
▁elif	-6740
▁emot	-6741
▁many	-6742
▁much	-6743
▁poor	-6744
▁redu	-6745
▁reve	-6746
▁tabe	-6747
▁then	-6748
いくつかの	-6749
かというと	-6750
がいっぱい	-6751
くらいしか	-6752
ことにより	-6753
ことのほか	-6754
させられて	-6755
されました	-6756
したものは	-6757
してあげる	-6758
じゃないよ	-6759
そのくらい	-6760
それ自体が	-6761
だけがある	-6762
できている	-6763
でしょうね	-6764
ともすれば	-6765
なんという	-6766
においては	-6767
にしている	-6768
のことです	-6769
のこと好き	-6770
のではなく	-6771
ほんとうに	-6772
ものすげえ	-6773
わけがない	-6774
をしながら	-6775
を見ながら	-6776
んだろうが	-6777
んでしょう	-6778
オナニーを	-6779
パラメータ	-6780
人間の本質	-6781
出している	-6782
原形不定詞	-6783
受け入れる	-6784
悪しき神は	-6785
本当のこと	-6786
極まりない	-6787
気づかない	-6788
目に見える	-6789
言い当てる	-6790
話しかける	-6791
追いかける	-6792
3%80%8	-6793
median	-6794
server	-6795
▁pleas	-6796
▁polit	-6797
▁short	-6798
▁speak	-6799
があるでしょ	-6800
されることが	-6801
ただそれだけ	-6802
でもなければ	-6803
といいながら	-6804
と思っていた	-6805
なんだからな	-6806
ほかならない	-6807
わかってない	-6808
わかりました	-6809
オーケストラ	-6810
タイミングで	-6811
マルコフ連鎖	-6812
人間ではない	-6813
自分のために	-6814
見えていない	-6815
顔をしながら	-6816
ational	-6817
▁cannot	-6818
▁desire	-6819
▁during	-6820
▁happen	-6821
こうなっている	-6822
はっきりいって	-6823
ることによって	-6824
他ならなかった	-6825
▁kingdom	-6826
するしか能がない	-6827
影響を与えますか	-6828
▁physical	-6829
非常によく似ている	-6830
▁different	-6831
▁difference	-6832
▁AudioSegment	-6833
->	-6834
1.	-6835
2「	-6836
=6	-6837
?「	-6838
BC	-6839
OK	-6840
OP	-6841
OR	-6842
VE	-6843
],	-6844
aa	-6845
mm	-6846
up	-6847
àn	-6848
án	-6849
én	-6850
▁}	-6851
▁—	-6852
▁て	-6853
▁ん	-6854
▁サ	-6855
▁ハ	-6856
▁フ	-6857
▁全	-6858
▁女	-6859
▁族	-6860
▁見	-6861
々に	-6862
あく	-6863
おこ	-6864
おば	-6865
がば	-6866
がれ	-6867
が高	-6868
きこ	-6869
きを	-6870
げに	-6871
こち	-6872
たし	-6873
でな	-6874
に直	-6875
に達	-6876
のリ	-6877
の死	-6878
ばれ	-6879
びる	-6880
ふん	-6881
ほざ	-6882
ぼん	-6883
りが	-6884
れの	-6885
を奪	-6886
を覗	-6887
オイ	-6888
カタ	-6889
ゲロ	-6890
コス	-6891
ザエ	-6892
シグ	-6893
ズニ	-6894
セブ	-6895
セン	-6896
タグ	-6897
チェ	-6898
ドキ	-6899
ドル	-6900
ドン	-6901
ナイ	-6902
ナオ	-6903
バナ	-6904
ブル	-6905
ベラ	-6906
マス	-6907
ミリ	-6908
ムシ	-6909
モブ	-6910
ャン	-6911
ヤン	-6912
ルマ	-6913
ンビ	-6914
ーキ	-6915
一枚	-6916
三重	-6917
二つ	-6918
云々	-6919
他に	-6920
代替	-6921
住む	-6922
作話	-6923
侵入	-6924
信念	-6925
信用	-6926
候補	-6927
借り	-6928
健康	-6929
側面	-6930
偽だ	-6931
働く	-6932
僻み	-6933
内面	-6934
再現	-6935
分割	-6936
分身	-6937
制限	-6938
刻印	-6939
加減	-6940
労働	-6941
勝つ	-6942
取れ	-6943
君を	-6944
呪縛	-6945
喜ば	-6946
喧嘩	-6947
固有	-6948
国に	-6949
地点	-6950
堕胎	-6951
声の	-6952
大に	-6953
大学	-6954
天地	-6955
女神	-6956
安全	-6957
完遂	-6958
寄り	-6959
対応	-6960
尊い	-6961
小屋	-6962
尽く	-6963
尽蔵	-6964
屈服	-6965
平凡	-6966
幸福	-6967
役に	-6968
役を	-6969
従来	-6970
得た	-6971
心暗	-6972
恥じ	-6973
息子	-6974
悩ま	-6975
悪鬼	-6976
悲し	-6977
愛の	-6978
愛は	-6979
感は	-6980
感を	-6981
感謝	-6982
成す	-6983
扱い	-6984
投資	-6985
抱き	-6986
押す	-6987
採用	-6988
散ら	-6989
断片	-6990
方策	-6991
方角	-6992
暗示	-6993
未来	-6994
束縛	-6995
権力	-6996
次は	-6997
死な	-6998
沈黙	-6999
消極	-7000
消滅	-7001
混同	-7002
滅ぼ	-7003
烈な	-7004
燃え	-7005
猫は	-7006
男子	-7007
界隈	-7008
畳み	-7009
発音	-7010
眠る	-7011
磨き	-7012
移行	-7013
自主	-7014
自我	-7015
臭い	-7016
良心	-7017
西洋	-7018
解析	-7019
記録	-7020
話し	-7021
語録	-7022
読者	-7023
赤い	-7024
転換	-7025
返す	-7026
進化	-7027
違和	-7028
遠く	-7029
還元	-7030
郷愁	-7031
量子	-7032
鈍感	-7033
面に	-7034
韓国	-7035
音程	-7036
順番	-7037
頭の	-7038
飲む	-7039
首を	-7040
高等	-7041
.)"	-7042
act	-7043
add	-7044
ans	-7045
bit	-7046
ble	-7047
ogn	-7048
orn	-7049
ste	-7050
ten	-7051
top	-7052
umb	-7053
ved	-7054
▁**	-7055
▁1「	-7056
▁2.	-7057
▁7・	-7058
▁Dm	-7059
▁Do	-7060
▁Hz	-7061
▁Is	-7062
▁di	-7063
▁gl	-7064
▁sc	-7065
▁ここ	-7066
▁なあ	-7067
▁以下	-7068
▁僕の	-7069
▁君の	-7070
▁族長	-7071
」→<	-7072
あらば	-7073
いただ	-7074
いやつ	-7075
えても	-7076
おなじ	-7077
おらず	-7078
かいま	-7079
からず	-7080
から出	-7081
から醒	-7082
かれは	-7083
かんが	-7084
きたい	-7085
きもち	-7086
ここを	-7087
した後	-7088
しって	-7089
してね	-7090
しとる	-7091
する気	-7092
すんだ	-7093
すんな	-7094
そうで	-7095
そうに	-7096
その間	-7097
だけど	-7098
ぢゃん	-7099
っかい	-7100
って思	-7101
って顔	-7102
つぶつ	-7103
でもね	-7104
ともと	-7105
と共に	-7106
と化す	-7107
なしに	-7108
なりす	-7109
なれば	-7110
に入れ	-7111
の中身	-7112
の点数	-7113
の絵を	-7114
は必要	-7115
は良い	-7116
ばれて	-7117
ほんま	-7118
までも	-7119
みえる	-7120
みたら	-7121
めいた	-7122
ものさ	-7123
やかく	-7124
ゆえの	-7125
らせた	-7126
を思い	-7127
を投げ	-7128
を求め	-7129
を発達	-7130
を目指	-7131
を見せ	-7132
アウト	-7133
アプロ	-7134
ウイル	-7135
エピソ	-7136
オンの	-7137
カップ	-7138
ゴール	-7139
ジレン	-7140
ピッチ	-7141
ピング	-7142
ヤツの	-7143
リアル	-7144
ンプレ	-7145
ーマン	-7146
与えて	-7147
世の中	-7148
二種類	-7149
人格を	-7150
仕立て	-7151
全員が	-7152
出ない	-7153
切った	-7154
創作の	-7155
勝ち誇	-7156
勝った	-7157
勝利を	-7158
叫んだ	-7159
哲学的	-7160
唐突に	-7161
変える	-7162
多くの	-7163
嫉妬を	-7164
嫉妬心	-7165
巨大な	-7166
引っか	-7167
強大な	-7168
彼には	-7169
心暗鬼	-7170
思うよ	-7171
思索の	-7172
性行為	-7173
悲しい	-7174
惜しい	-7175
意味は	-7176
愛する	-7177
技術の	-7178
文字が	-7179
明確に	-7180
時だけ	-7181
時代に	-7182
概念は	-7183
殺して	-7184
気が済	-7185
演じて	-7186
演じる	-7187
片思い	-7188
物事を	-7189
状態が	-7190
男性に	-7191
男性を	-7192
真っ白	-7193
眠りに	-7194
私にも	-7195
私自身	-7196
立派な	-7197
端的に	-7198
聞くと	-7199
聞こえ	-7200
背理が	-7201
自然な	-7202
落とす	-7203
行為に	-7204
表現は	-7205
言語化	-7206
訪れる	-7207
読んだ	-7208
読者に	-7209
買って	-7210
金持ち	-7211
電波が	-7212
電波を	-7213
面から	-7214
飲んで	-7215
髪の毛	-7216
[1]。	-7217
alse	-7218
ates	-7219
atio	-7220
cial	-7221
file	-7222
fter	-7223
ited	-7224
rase	-7225
ular	-7226
ward	-7227
ween	-7228
▁100	-7229
▁cle	-7230
▁cre	-7231
▁def	-7232
▁mak	-7233
▁mis	-7234
▁pre	-7235
▁psy	-7236
▁rem	-7237
▁sal	-7238
▁tra	-7239
▁いつも	-7240
▁この世	-7241
▁これが	-7242
▁修道士	-7243
▁美しい	-7244
」→2「	-7245
あったら	-7246
あまりに	-7247
いえない	-7248
いただけ	-7249
いつもの	-7250
いわない	-7251
おいしい	-7252
かります	-7253
があるか	-7254
ことを示	-7255
さすがに	-7256
しておく	-7257
しますよ	-7258
するだろ	-7259
するまで	-7260
そこらじ	-7261
それっぽ	-7262
そんなん	-7263
たくなる	-7264
たしかだ	-7265
だという	-7266
だよこれ	-7267
ちゃんと	-7268
ちょさく	-7269
って感じ	-7270
できたら	-7271
できるか	-7272
ですかね	-7273
という夢	-7274
とっても	-7275
とは違う	-7276
と感ずる	-7277
と言った	-7278
どこから	-7279
どこまで	-7280
どっかで	-7281
なさそう	-7282
なのかい	-7283
なります	-7284
にかけて	-7285
のうちの	-7286
のことさ	-7287
の意味で	-7288
ぶつぶつ	-7289
ほんらい	-7290
まともに	-7291
みたいで	-7292
められた	-7293
もちろん	-7294
るために	-7295
れていた	-7296
われたい	-7297
われても	-7298
をつける	-7299
を受けた	-7300
んだもん	-7301
んなさい	-7302
エロ画像	-7303
キチガイ	-7304
グループ	-7305
ゴキブリ	-7306
シグナル	-7307
ジレンマ	-7308
スマート	-7309
ディズニ	-7310
ディング	-7311
データの	-7312
フォルダ	-7313
ワタシが	-7314
ワタシに	-7315
一体何を	-7316
一体全体	-7317
何もない	-7318
作れない	-7319
倦怠感が	-7320
取れない	-7321
可能です	-7322
圧倒的に	-7323
多すぎる	-7324
忘れない	-7325
意味付け	-7326
描かれて	-7327
描かれる	-7328
操られた	-7329
敗北した	-7330
敵対者に	-7331
毎日毎日	-7332
無限回廊	-7333
疑心暗鬼	-7334
的であり	-7335
相手から	-7336
笑い声が	-7337
絵画教室	-7338
聞こえた	-7339
腐女子の	-7340
自分勝手	-7341
表現する	-7342
見渡した	-7343
言い回し	-7344
認識する	-7345
間違った	-7346
関係なく	-7347
頭が悪い	-7348
=1/6,	-7349
ances	-7350
indow	-7351
peror	-7352
start	-7353
▁away	-7354
▁pati	-7355
▁stop	-7356
▁take	-7357
▁very	-7358
▁そういう	-7359
▁なるほど	-7360
▁わたしは	-7361
▁ワタシの	-7362
ありました	-7363
いっている	-7364
かのようだ	-7365
があるなら	-7366
くださいね	-7367
こともある	-7368
させている	-7369
されるべき	-7370
したのです	-7371
じゃないと	-7372
そうすれば	-7373
そこにいる	-7374
たまらない	-7375
ちょっとは	-7376
であるなら	-7377
という発想	-7378
という言説	-7379
どうしよう	-7380
どうせなら	-7381
ないという	-7382
なかったし	-7383
なんだけど	-7384
なんちゃら	-7385
なんとなく	-7386
に足らない	-7387
もできない	-7388
よりずっと	-7389
られてきた	-7390
わっている	-7391
んだろうな	-7392
アプローチ	-7393
エピソード	-7394
カンスリエ	-7395
ランキング	-7396
京介さんが	-7397
人間だった	-7398
仕方がなく	-7399
優れている	-7400
回っている	-7401
女に対して	-7402
実在しない	-7403
客観的事実	-7404
待っている	-7405
思い通りに	-7406
意味もなく	-7407
楽しませる	-7408
残念ながら	-7409
神の代わり	-7410
自分自身で	-7411
見えている	-7412
読み取れる	-7413
込んでいる	-7414
iretsu	-7415
▁18:39	-7416
▁break	-7417
▁chang	-7418
▁contr	-7419
▁doing	-7420
▁influ	-7421
▁range	-7422
▁split	-7423
▁while	-7424
▁この問いは	-7425
▁原形不定詞	-7426
ありはしない	-7427
かもしれんが	-7428
がありません	-7429
されるという	-7430
ためしがない	-7431
っていうのが	-7432
できなくなる	-7433
ではないのか	-7434
となっている	-7435
どういうこと	-7436
なんだからね	-7437
ほぼ例外なく	-7438
やめられない	-7439
ようになって	-7440
わかりますか	-7441
バイアス結果	-7442
フィクション	-7443
本当の意味で	-7444
知っているか	-7445
―――――――	-7446
▁commun	-7447
▁effect	-7448
▁reveal	-7449
ことができます	-7450
これほどまでに	-7451
されているんだ	-7452
っていうことは	-7453
であってほしい	-7454
なんじゃないの	-7455
になにができる	-7456
ようとしている	-7457
00000000	-7458
3%82%92%	-7459
▁between	-7460
▁connect	-7461
▁emperor	-7462
いわせてもらえば	-7463
じゃねえだろうな	-7464
というものがある	-7465
のかということを	-7466
可能性があります	-7467
StatStack	-7468
▁Fraction	-7469
▁combined	-7470
▁humanity	-7471
▁ridicule	-7472
ダイアトニックコード	-7473
!!!!!!!!!!!	-7474
▁hikozaemon	-7475
).	-7476
,'	-7477
2.	-7478
3.	-7479
8.	-7480
:「	-7481
=4	-7482
?"	-7483
AV	-7484
EF	-7485
TS	-7486
aw	-7487
cl	-7488
jp	-7489
mb	-7490
ox	-7491
te	-7492
▁〜	-7493
▁し	-7494
▁ま	-7495
▁る	-7496
▁ア	-7497
▁エ	-7498
▁王	-7499
▁耳	-7500
、7	-7501
あが	-7502
あき	-7503
えに	-7504
かえ	-7505
が大	-7506
が私	-7507
くと	-7508
ざん	-7509
しも	-7510
ずら	-7511
せや	-7512
ぜひ	-7513
ちて	-7514
っぺ	-7515
どき	-7516
に触	-7517
の底	-7518
の面	-7519
へへ	-7520
よお	-7521
らな	-7522
るい	-7523
るが	-7524
るな	-7525
を呈	-7526
を広	-7527
を狙	-7528
を誘	-7529
アカ	-7530
ウィ	-7531
オチ	-7532
カッ	-7533
カネ	-7534
ガタ	-7535
ギャ	-7536
クス	-7537
ジイ	-7538
スピ	-7539
デッ	-7540
ハリ	-7541
プト	-7542
ヘル	-7543
ミス	-7544
ョン	-7545
ラの	-7546
ラブ	-7547
ンド	-7548
一個	-7549
一秒	-7550
下げ	-7551
下を	-7552
不平	-7553
世の	-7554
人で	-7555
仲間	-7556
伝説	-7557
余地	-7558
信奉	-7559
俯瞰	-7560
倍も	-7561
候群	-7562
元々	-7563
共の	-7564
出版	-7565
分裂	-7566
分解	-7567
切る	-7568
副次	-7569
割く	-7570
力学	-7571
加速	-7572
勉学	-7573
勝て	-7574
千里	-7575
卑下	-7576
危機	-7577
号泣	-7578
合切	-7579
合図	-7580
吹聴	-7581
周波	-7582
喰ら	-7583
回転	-7584
国を	-7585
基に	-7586
増幅	-7587
墜落	-7588
壁に	-7589
壮絶	-7590
変動	-7591
変換	-7592
夢で	-7593
妖怪	-7594
委ね	-7595
学問	-7596
実用	-7597
実質	-7598
実践	-7599
尊厳	-7600
左翼	-7601
巻き	-7602
帰納	-7603
年は	-7604
引っ	-7605
引用	-7606
形容	-7607
彼に	-7608
忍耐	-7609
応用	-7610
性別	-7611
恐れ	-7612
恰好	-7613
惚れ	-7614
意訳	-7615
憑り	-7616
懇願	-7617
成就	-7618
所有	-7619
手は	-7620
才能	-7621
拠り	-7622
持続	-7623
捕ま	-7624
接近	-7625
政府	-7626
料理	-7627
新語	-7628
日で	-7629
昔は	-7630
時空	-7631
智栄	-7632
暖化	-7633
暗闇	-7634
暴れ	-7635
暴走	-7636
曲解	-7637
最下	-7638
朝鮮	-7639
材料	-7640
歌う	-7641
正確	-7642
泣く	-7643
注目	-7644
演算	-7645
点は	-7646
無言	-7647
特権	-7648
犯罪	-7649
甘い	-7650
生徒	-7651
男女	-7652
番目	-7653
白い	-7654
皆が	-7655
私と	-7656
稚拙	-7657
笑う	-7658
等価	-7659
箇条	-7660
細胞	-7661
終末	-7662
絵で	-7663
繁栄	-7664
罵り	-7665
翻訳	-7666
背筋	-7667
自慢	-7668
自明	-7669
若い	-7670
虚無	-7671
虫の	-7672
衛星	-7673
要請	-7674
解離	-7675
誘惑	-7676
誤診	-7677
超人	-7678
辛い	-7679
迷路	-7680
達成	-7681
適当	-7682
選べ	-7683
部位	-7684
長い	-7685
長く	-7686
開き	-7687
陶酔	-7688
際に	-7689
雑魚	-7690
離脱	-7691
震え	-7692
頑張	-7693
頻度	-7694
風呂	-7695
飾り	-7696
魂が	-7697
'])	-7698
(['	-7699
00～	-7700
9%9	-7701
END	-7702
Par	-7703
aph	-7704
aps	-7705
day	-7706
dir	-7707
ody	-7708
old	-7709
pos	-7710
rop	-7711
▁-(	-7712
▁ID	-7713
▁Ph	-7714
▁To	-7715
▁ac	-7716
▁bo	-7717
▁bu	-7718
▁sk	-7719
▁まあ	-7720
▁何も	-7721
▁僕が	-7722
▁全て	-7723
▁勝利	-7724
▁名前	-7725
▁好き	-7726
あげた	-7727
あっち	-7728
あの日	-7729
あの時	-7730
いうな	-7731
いたが	-7732
いまの	-7733
うちは	-7734
うーん	-7735
えろい	-7736
おいた	-7737
おまん	-7738
がちの	-7739
がれた	-7740
が発生	-7741
こうだ	-7742
この先	-7743
ごとく	-7744
さんも	-7745
しねえ	-7746
じっと	-7747
じゃろ	-7748
すらも	-7749
する時	-7750
せずに	-7751
そこの	-7752
たくて	-7753
たくも	-7754
たって	-7755
ちらの	-7756
っちい	-7757
ってい	-7758
ってて	-7759
つうと	-7760
づらい	-7761
ていう	-7762
できず	-7763
ですし	-7764
ですわ	-7765
とかか	-7766
とかな	-7767
とか思	-7768
とは限	-7769
なだけ	-7770
などが	-7771
などを	-7772
ならぬ	-7773
なりの	-7774
に帰す	-7775
に影響	-7776
ねえぞ	-7777
ねがい	-7778
のおじ	-7779
の内容	-7780
の姿を	-7781
の攻撃	-7782
の漫画	-7783
はまだ	-7784
はもう	-7785
ひらが	-7786
ふたつ	-7787
べきか	-7788
ぼくは	-7789
まじで	-7790
ままで	-7791
まるい	-7792
もって	-7793
もんね	-7794
やめる	-7795
やり方	-7796
やると	-7797
やんけ	-7798
らしく	-7799
らもう	-7800
るから	-7801
わけが	-7802
わしい	-7803
わせて	-7804
をかく	-7805
を仕掛	-7806
を創造	-7807
を否定	-7808
を持た	-7809
を書き	-7810
を獲得	-7811
んやで	-7812
イッチ	-7813
エクセ	-7814
グロテ	-7815
ゲット	-7816
コンビ	-7817
ジジイ	-7818
スタル	-7819
スフィ	-7820
センス	-7821
ドラえ	-7822
バイト	-7823
バカの	-7824
バナナ	-7825
パラド	-7826
プロパ	-7827
ベース	-7828
ボイス	-7829
マイク	-7830
メフィ	-7831
ヤバイ	-7832
不満足	-7833
世界観	-7834
二番目	-7835
人々が	-7836
人生で	-7837
人類の	-7838
今こそ	-7839
体中が	-7840
体中を	-7841
何にも	-7842
個人の	-7843
出鱈目	-7844
分音符	-7845
動かす	-7846
勝手な	-7847
化した	-7848
千里眼	-7849
原理は	-7850
取り除	-7851
受けた	-7852
名前を	-7853
名義で	-7854
向けの	-7855
周りを	-7856
喋って	-7857
大きい	-7858
大量に	-7859
大量の	-7860
女性に	-7861
女性を	-7862
奴らが	-7863
奴等は	-7864
嫌いだ	-7865
子供を	-7866
度関数	-7867
当時の	-7868
忠実に	-7869
思考が	-7870
意識が	-7871
愚かな	-7872
感じて	-7873
感情を	-7874
技術は	-7875
抜いた	-7876
抱いた	-7877
文字列	-7878
明した	-7879
昨日の	-7880
最近は	-7881
本当だ	-7882
本質を	-7883
棒読み	-7884
極める	-7885
歓心を	-7886
止まる	-7887
止めて	-7888
正しく	-7889
残酷な	-7890
殺人鬼	-7891
決める	-7892
温暖化	-7893
無尽蔵	-7894
照らし	-7895
理解し	-7896
申し出	-7897
症候群	-7898
盗聴は	-7899
知能の	-7900
答えは	-7901
答える	-7902
絶対的	-7903
緻密に	-7904
脳内の	-7905
自由な	-7906
落書き	-7907
複雑な	-7908
褒めて	-7909
言葉で	-7910
証拠に	-7911
誤りを	-7912
誰でも	-7913
調子で	-7914
貴方方	-7915
起きた	-7916
通り越	-7917
進んで	-7918
違和感	-7919
部屋の	-7920
限って	-7921
障碍者	-7922
音声を	-7923
What	-7924
atch	-7925
chat	-7926
cret	-7927
ider	-7928
lock	-7929
most	-7930
pped	-7931
ship	-7932
ster	-7933
ural	-7934
weet	-7935
▁Are	-7936
▁Ski	-7937
▁Why	-7938
▁air	-7939
▁ang	-7940
▁ans	-7941
▁beg	-7942
▁enh	-7943
▁env	-7944
▁fle	-7945
▁fra	-7946
▁gaz	-7947
▁its	-7948
▁lau	-7949
▁rec	-7950
▁rep	-7951
▁too	-7952
▁try	-7953
▁two	-7954
▁web	-7955
▁あれは	-7956
▁じゃあ	-7957
▁そこで	-7958
▁その後	-7959
▁そんで	-7960
▁だって	-7961
▁でもね	-7962
▁なんだ	-7963
あげくに	-7964
あまりの	-7965
あらゆる	-7966
いくつか	-7967
いけない	-7968
いますよ	-7969
お互いに	-7970
お母さん	-7971
から抜け	-7972
から解放	-7973
がゆえに	-7974
こうなる	-7975
ことだろ	-7976
この俺に	-7977
この私に	-7978
この私を	-7979
こんにち	-7980
ごめんね	-7981
させない	-7982
さんざん	-7983
しておき	-7984
してしま	-7985
じゃんね	-7986
するのも	-7987
するのを	-7988
そうそう	-7989
そのとき	-7990
その女の	-7991
だけです	-7992
だったが	-7993
ちゃんが	-7994
ぢゃんね	-7995
ってこと	-7996
ってそう	-7997
といわん	-7998
とすると	-7999
とたんに	-8000
とっては	-8001
との間に	-8002
どうにか	-8003
どっかに	-8004
なぞない	-8005
なものに	-8006
ならいい	-8007
なんかは	-8008
なんじゃ	-8009
に自分の	-8010
ねえのか	-8011
のが一番	-8012
はははは	-8013
べからず	-8014
まかり通	-8015
みえない	-8016
もっとも	-8017
もともと	-8018
ものなら	-8019
ようです	-8020
ようなら	-8021
らないで	-8022
ればよい	-8023
われない	-8024
をすると	-8025
をもたら	-8026
を使った	-8027
を抱いた	-8028
を求める	-8029
んだがな	-8030
アイデア	-8031
アンタの	-8032
イスラム	-8033
ザエモン	-8034
ステリー	-8035
ノスタル	-8036
バカしい	-8037
バラバラ	-8038
パイソン	-8039
フレーズ	-8040
ブラック	-8041
ボコボコ	-8042
ボロボロ	-8043
マイナー	-8044
マウント	-8045
ヤンデレ	-8046
ユングの	-8047
レベルで	-8048
下にいる	-8049
人間関係	-8050
以外にも	-8051
副長って	-8052
場の空気	-8053
多大なる	-8054
女の子は	-8055
実在する	-8056
差し上げ	-8057
底なしの	-8058
引きこも	-8059
引き続き	-8060
当たり前	-8061
心理学者	-8062
思えない	-8063
悪かった	-8064
意味不明	-8065
感がある	-8066
是非とも	-8067
死んでる	-8068
気にして	-8069
理解不能	-8070
申し上げ	-8071
発狂して	-8072
目の前で	-8073
目的を有	-8074
箇条書き	-8075
美味しい	-8076
考えられ	-8077
者がいる	-8078
認められ	-8079
論理破綻	-8080
)))/(	-8081
ature	-8082
ioned	-8083
ities	-8084
iting	-8085
ittle	-8086
onant	-8087
riend	-8088
thers	-8089
▁2024	-8090
▁7:08	-8091
▁auth	-8092
▁ever	-8093
▁fade	-8094
▁good	-8095
▁hand	-8096
▁line	-8097
▁list	-8098
▁outs	-8099
▁rule	-8100
▁wish	-8101
いわれても	-8102
えていない	-8103
おじさんの	-8104
かっている	-8105
かどうかは	-8106
があったら	-8107
があるとか	-8108
があるのに	-8109
が足らない	-8110
こう述べた	-8111
ことである	-8112
ことにした	-8113
こんなもの	-8114
されてきた	-8115
されること	-8116
したくない	-8117
していった	-8118
しているが	-8119
していると	-8120
すみません	-8121
することに	-8122
するところ	-8123
そうなんだ	-8124
そこらへん	-8125
そのことを	-8126
そのものは	-8127
その全てが	-8128
それ以外の	-8129
たいという	-8130
っちまった	-8131
っています	-8132
ついている	-8133
であっても	-8134
ではないよ	-8135
でもないよ	-8136
という行為	-8137
という説明	-8138
としかいい	-8139
となります	-8140
ともいえる	-8141
と呼ばれる	-8142
どうしたら	-8143
ないからね	-8144
なのであり	-8145
なりすまし	-8146
なんだよね	-8147
にあるのは	-8148
になっちゃ	-8149
のある者は	-8150
はいけない	-8151
はめになる	-8152
ましょうか	-8153
もなければ	-8154
もなんとも	-8155
やすくなる	-8156
られました	-8157
んだと思う	-8158
グロテスク	-8159
スフィンク	-8160
テンション	-8161
ピンク色の	-8162
メフィスト	-8163
ライオンの	-8164
例えるなら	-8165
好きですか	-8166
必要はない	-8167
欲しかった	-8168
止まらない	-8169
気持ち悪い	-8170
漫画を描く	-8171
生成された	-8172
自分の利益	-8173
見えてない	-8174
都合のよい	-8175
!!!!!1	-8176
ribute	-8177
▁17:45	-8178
▁Alice	-8179
▁dream	-8180
▁found	-8181
▁stack	-8182
▁truth	-8183
▁vowel	-8184
▁which	-8185
▁woman	-8186
▁writt	-8187
おかあさんの	-8188
がありました	-8189
しているのは	-8190
そういうこと	-8191
だからである	-8192
であることに	-8193
どうやったら	-8194
なってしまう	-8195
なんだろうか	-8196
になっていく	-8197
のことである	-8198
ひとついうと	-8199
やしないのさ	-8200
やることなす	-8201
やる気がない	-8202
られてしまう	-8203
わかりやすい	-8204
チョコレート	-8205
ノスタルジー	-8206
バカバカしい	-8207
パラドックス	-8208
プロパガンダ	-8209
メッセージを	-8210
好きではない	-8211
存在してない	-8212
感じられない	-8213
最も美しい男	-8214
)))/(((	-8215
ability	-8216
▁action	-8217
▁beauty	-8218
▁before	-8219
▁change	-8220
▁coming	-8221
▁create	-8222
▁inform	-8223
▁return	-8224
▁sample	-8225
▁secret	-8226
▁彦左衛門の父	-8227
する必要がある	-8228
そんなことより	-8229
といわんばかり	-8230
なくなっている	-8231
になってほしい	-8232
みたいなことを	-8233
を持っていない	-8234
何の意味がある	-8235
嫌われたくない	-8236
彦左衛門さんの	-8237
3%81%84%	-8238
▁reality	-8239
かもしれませんね	-8240
することができる	-8241
なのかもしれない	-8242
になってしまった	-8243
のかもしれません	-8244
ように設計された	-8245
意味のわからない	-8246
襲い掛かってくる	-8247
▁Skipping	-8248
▁personal	-8249
▁thinking	-8250
ことを意味している	-8251
やりたくないことを	-8252
らなければならない	-8253
▁mentioned	-8254
▁synthesis	-8255
としかいいようがない	-8256
なければならなかった	-8257
マインドコントロール	-8258
要求するしか能がない	-8259
ありがとうございました	-8260
そのためになにができる	-8261
いいいいいいいいいいいいいいいい	-8262
!=	-8263
".	-8264
("	-8265
(&	-8266
),	-8267
)。	-8268
)【	-8269
+「	-8270
--	-8271
/?	-8272
1,	-8273
4.	-8274
5.	-8275
95	-8276
BF	-8277
Ch	-8278
DL	-8279
HC	-8280
IN	-8281
IP	-8282
IQ	-8283
OU	-8284
SA	-8285
SD	-8286
YA	-8287
[2	-8288
de	-8289
ia	-8290
jì	-8291
mr	-8292
uè	-8293
uì	-8294
ùg	-8295
▁V	-8296
▁q	-8297
▁À	-8298
▁く	-8299
▁も	-8300
▁ら	-8301
▁ー	-8302
▁二	-8303
▁我	-8304
▁本	-8305
▁死	-8306
、」	-8307
いと	-8308
いも	-8309
い改	-8310
おた	-8311
が付	-8312
くい	-8313
こき	-8314
さで	-8315
さの	-8316
しん	-8317
だに	-8318
ちゅ	-8319
つね	-8320
つら	-8321
づく	-8322
とく	-8323
と相	-8324
と願	-8325
な姿	-8326
に乗	-8327
に付	-8328
に座	-8329
の不	-8330
の外	-8331
の大	-8332
の実	-8333
の音	-8334
ばり	-8335
ぱく	-8336
ひろ	-8337
ふふ	-8338
ぽつ	-8339
まね	-8340
みが	-8341
みせ	-8342
みだ	-8343
みを	-8344
むき	-8345
もも	-8346
やか	-8347
ゆく	-8348
らで	-8349
れえ	-8350
を告	-8351
んし	-8352
ん坊	-8353
アテ	-8354
アド	-8355
アホ	-8356
オナ	-8357
カマ	-8358
カワ	-8359
グル	-8360
ゲラ	-8361
コツ	-8362
コレ	-8363
ツラ	-8364
デザ	-8365
デリ	-8366
ノス	-8367
パチ	-8368
ポン	-8369
マア	-8370
ミミ	-8371
ミル	-8372
モゴ	-8373
ルト	-8374
ロー	-8375
一致	-8376
上映	-8377
上述	-8378
不穏	-8379
世紀	-8380
予告	-8381
事情	-8382
事態	-8383
五体	-8384
亡霊	-8385
介護	-8386
仕業	-8387
代の	-8388
伸び	-8389
体重	-8390
何に	-8391
何学	-8392
依頼	-8393
光は	-8394
全滅	-8395
公衆	-8396
処女	-8397
出さ	-8398
分散	-8399
判定	-8400
刺激	-8401
割合	-8402
力に	-8403
加害	-8404
勇気	-8405
化し	-8406
半ば	-8407
卒業	-8408
受動	-8409
口を	-8410
右に	-8411
右京	-8412
右耳	-8413
合う	-8414
呑み	-8415
嘲る	-8416
回り	-8417
回復	-8418
団結	-8419
堕ち	-8420
場が	-8421
多様	-8422
夢中	-8423
大地	-8424
大麻	-8425
天理	-8426
失礼	-8427
奴が	-8428
妊娠	-8429
妙な	-8430
威張	-8431
嫌う	-8432
存の	-8433
学生	-8434
守る	-8435
完結	-8436
定か	-8437
対称	-8438
小説	-8439
就職	-8440
屈辱	-8441
届け	-8442
崩れ	-8443
工作	-8444
希釈	-8445
幼い	-8446
度が	-8447
式は	-8448
待て	-8449
復讐	-8450
徹夜	-8451
徹底	-8452
心で	-8453
悲報	-8454
愚衆	-8455
愛と	-8456
成分	-8457
我が	-8458
戒め	-8459
手塚	-8460
抗う	-8461
持て	-8462
捉え	-8463
据え	-8464
敏感	-8465
教育	-8466
敵に	-8467
文型	-8468
既婚	-8469
日頃	-8470
春風	-8471
最適	-8472
根底	-8473
欲情	-8474
歌劇	-8475
武者	-8476
浮気	-8477
演劇	-8478
激痛	-8479
無償	-8480
父親	-8481
王が	-8482
王に	-8483
現に	-8484
生か	-8485
産物	-8486
略奪	-8487
異常	-8488
異邦	-8489
発散	-8490
盗む	-8491
相応	-8492
睨み	-8493
禁止	-8494
稀有	-8495
積極	-8496
空調	-8497
終焉	-8498
維持	-8499
線を	-8500
縛り	-8501
罵倒	-8502
膨ら	-8503
虐め	-8504
衝撃	-8505
表情	-8506
表記	-8507
見ろ	-8508
規範	-8509
視界	-8510
言論	-8511
詰め	-8512
話の	-8513
諦め	-8514
財産	-8515
資料	-8516
足す	-8517
踊り	-8518
踏み	-8519
輝く	-8520
迷信	-8521
追及	-8522
逃避	-8523
連中	-8524
進め	-8525
進歩	-8526
過程	-8527
達に	-8528
遠慮	-8529
邪推	-8530
金で	-8531
錯誤	-8532
間は	-8533
降り	-8534
難い	-8535
霊が	-8536
青空	-8537
非国	-8538
頂点	-8539
頭を	-8540
頼み	-8541
頼む	-8542
顔面	-8543
食物	-8544
','	-8545
)10	-8546
/?=	-8547
99%	-8548
='+	-8549
=1,	-8550
ark	-8551
arm	-8552
ars	-8553
cal	-8554
iew	-8555
ilì	-8556
ins	-8557
isp	-8558
low	-8559
mon	-8560
new	-8561
ray	-8562
shì	-8563
}")	-8564
▁19	-8565
▁1・	-8566
▁3.	-8567
▁5、	-8568
▁6、	-8569
▁?/	-8570
▁Bm	-8571
▁LO	-8572
▁My	-8573
▁co	-8574
▁cr	-8575
▁es	-8576
▁sī	-8577
▁xi	-8578
▁世界	-8579
▁井上	-8580
▁全音	-8581
▁女は	-8582
▁娘は	-8583
▁自己	-8584
、10	-8585
」+「	-8586
あげて	-8587
いいい	-8588
いいな	-8589
いかが	-8590
いたと	-8591
いちゃ	-8592
いまだ	-8593
ううん	-8594
うちに	-8595
えええ	-8596
お互い	-8597
かけた	-8598
がこの	-8599
がれる	-8600
が来る	-8601
くださ	-8602
くなり	-8603
この僕	-8604
この時	-8605
こんで	-8606
ごらん	-8607
しがた	-8608
しすぎ	-8609
して頂	-8610
するよ	-8611
ずらい	-8612
ぜんぶ	-8613
そいつ	-8614
その人	-8615
それの	-8616
ただし	-8617
たまた	-8618
っきに	-8619
っちょ	-8620
っぱり	-8621
つめて	-8622
でもな	-8623
で一番	-8624
ときの	-8625
と音声	-8626
なこと	-8627
などに	-8628
などは	-8629
なのよ	-8630
なんよ	-8631
につけ	-8632
に出会	-8633
に取り	-8634
に見舞	-8635
に言う	-8636
に陥る	-8637
のちに	-8638
のにね	-8639
の元に	-8640
の挙動	-8641
の描写	-8642
の根を	-8643
の誕生	-8644
むかし	-8645
めんど	-8646
もいる	-8647
やかな	-8648
やがる	-8649
やるよ	-8650
ようか	-8651
りたい	-8652
るのは	-8653
わった	-8654
をしろ	-8655
を全て	-8656
を嘲笑	-8657
を浴び	-8658
を示す	-8659
を読み	-8660
を起こ	-8661
んだし	-8662
んだわ	-8663
んねん	-8664
んのは	-8665
んのよ	-8666
オリジ	-8667
カタワ	-8668
キュバ	-8669
シャム	-8670
ストレ	-8671
ストー	-8672
スルー	-8673
ゾンビ	-8674
タジー	-8675
ダンス	-8676
ツール	-8677
ニング	-8678
ネーム	-8679
バック	-8680
パワー	-8681
フリー	-8682
メンの	-8683
モノが	-8684
ヤツに	-8685
ラベル	-8686
ヴァカ	-8687
一向に	-8688
一文字	-8689
一日に	-8690
一番目	-8691
上手く	-8692
不完全	-8693
世界一	-8694
人生の	-8695
人類は	-8696
付き合	-8697
仰向け	-8698
何かに	-8699
作曲の	-8700
使った	-8701
使われ	-8702
優しさ	-8703
先方は	-8704
入れる	-8705
全ては	-8706
全力で	-8707
具体的	-8708
再構築	-8709
前から	-8710
助けて	-8711
動いて	-8712
動画を	-8713
単位で	-8714
参考に	-8715
口から	-8716
呼応子	-8717
問題に	-8718
回答者	-8719
基本形	-8720
場の空	-8721
女って	-8722
女とは	-8723
女には	-8724
奴等の	-8725
威張り	-8726
嫉妬と	-8727
寄って	-8728
帰納法	-8729
幾何学	-8730
当たる	-8731
当て嵌	-8732
彼女が	-8733
微笑み	-8734
怒り狂	-8735
性格が	-8736
悔い改	-8737
患者の	-8738
意志は	-8739
意識に	-8740
感じが	-8741
慰めて	-8742
憧れる	-8743
技術を	-8744
拠り所	-8745
持ち主	-8746
据える	-8747
敗北者	-8748
文句を	-8749
文字は	-8750
方法論	-8751
明確な	-8752
時の顔	-8753
未知の	-8754
本人の	-8755
来ない	-8756
次の日	-8757
止まら	-8758
母音の	-8759
気づき	-8760
沼らせ	-8761
浮かび	-8762
消した	-8763
湧いて	-8764
無関係	-8765
無限に	-8766
無限の	-8767
燃える	-8768
狂気に	-8769
独自の	-8770
猫ちゃ	-8771
生殖器	-8772
男女の	-8773
疲れて	-8774
目立つ	-8775
睡眠を	-8776
短音階	-8777
社会が	-8778
私から	-8779
空間に	-8780
立てて	-8781
答えた	-8782
置いて	-8783
考え方	-8784
肝心の	-8785
背景を	-8786
自らの	-8787
自意識	-8788
落ちて	-8789
落ちる	-8790
落とし	-8791
要求を	-8792
見てて	-8793
視点が	-8794
視線を	-8795
言う事	-8796
言おう	-8797
言語で	-8798
計画を	-8799
調べて	-8800
赤ん坊	-8801
述べる	-8802
透けて	-8803
適切な	-8804
遺伝子	-8805
酔いし	-8806
集めて	-8807
難しく	-8808
音楽に	-8809
高度な	-8810
%93%	-8811
)!!!	-8812
=1/4	-8813
arch	-8814
ases	-8815
blem	-8816
come	-8817
etic	-8818
form	-8819
haps	-8820
ices	-8821
iful	-8822
ilen	-8823
ling	-8824
more	-8825
peci	-8826
requ	-8827
sume	-8828
term	-8829
they	-8830
thod	-8831
tock	-8832
uāng	-8833
▁bad	-8834
▁dra	-8835
▁ext	-8836
▁man	-8837
▁new	-8838
▁non	-8839
▁occ	-8840
▁row	-8841
▁sur	-8842
▁vis	-8843
▁why	-8844
▁yuè	-8845
▁zuò	-8846
▁あんな	-8847
▁しかも	-8848
▁そうさ	-8849
▁なぜか	-8850
▁カイト	-8851
▁人間は	-8852
▁以下は	-8853
▁右大臣	-8854
▁彼女は	-8855
▁彼等は	-8856
▁自分の	-8857
あげるよ	-8858
あったが	-8859
あてつけ	-8860
いいたい	-8861
いうんだ	-8862
いじわる	-8863
いちばん	-8864
えてない	-8865
おっぱい	-8866
おねがい	-8867
おまえは	-8868
かくいう	-8869
かなりの	-8870
かのよう	-8871
からほど	-8872
がために	-8873
が存在し	-8874
きたない	-8875
くっつく	-8876
くもない	-8877
ここ最近	-8878
この世は	-8879
この世界	-8880
さきほど	-8881
させたい	-8882
さんとか	-8883
しそうな	-8884
したとか	-8885
したのは	-8886
しだした	-8887
しなくて	-8888
しますね	-8889
し続けた	-8890
じゃなく	-8891
すために	-8892
すらする	-8893
する方法	-8894
する訓練	-8895
そしたら	-8896
そっくり	-8897
その存在	-8898
その瞬間	-8899
それより	-8900
たかだか	-8901
たまった	-8902
だけ無駄	-8903
だったね	-8904
だと思う	-8905
っしゃろ	-8906
っておも	-8907
ってなに	-8908
ついてる	-8909
つうのが	-8910
つもりで	-8911
とはいわ	-8912
とやかく	-8913
と思えば	-8914
と言って	-8915
どいつも	-8916
どっちも	-8917
ないけど	-8918
なのかな	-8919
ならねえ	-8920
なんだい	-8921
なんなの	-8922
になにも	-8923
になろう	-8924
にはない	-8925
にはなる	-8926
にもなる	-8927
に反して	-8928
に至った	-8929
のかしら	-8930
のが好き	-8931
のことは	-8932
のほうに	-8933
の世界に	-8934
の中には	-8935
の女の子	-8936
の意味を	-8937
の間違い	-8938
ひとつで	-8939
ひらがな	-8940
ぶっちゃ	-8941
ぼんやり	-8942
まくった	-8943
もういい	-8944
ものしか	-8945
ものって	-8946
やっても	-8947
やつらは	-8948
やろうか	-8949
わけだし	-8950
わざわざ	-8951
わすれる	-8952
をしても	-8953
を用いて	-8954
を見たい	-8955
アタック	-8956
アニメを	-8957
ウイルス	-8958
オマエに	-8959
キャラに	-8960
スタート	-8961
ソイツが	-8962
ソイツに	-8963
ティック	-8964
ブツブツ	-8965
ホストに	-8966
モチーフ	-8967
ンプティ	-8968
一時的に	-8969
不可能だ	-8970
与えられ	-8971
京子さん	-8972
仕方なく	-8973
何が必要	-8974
価値を見	-8975
側にいる	-8976
創作意欲	-8977
創作新語	-8978
取り扱う	-8979
合わせた	-8980
君のこと	-8981
否定的な	-8982
含まれて	-8983
哲学者は	-8984
外部から	-8985
夢から醒	-8986
嫉妬とか	-8987
存在して	-8988
完全なる	-8989
快楽物質	-8990
思いつく	-8991
性的興奮	-8992
息の根を	-8993
愛がない	-8994
成り立ち	-8995
抽象的な	-8996
持たない	-8997
掲示板の	-8998
敵対者を	-8999
最後まで	-9000
決まって	-9001
浮かんだ	-9002
消し去る	-9003
湧かない	-9004
無意識に	-9005
独り言を	-9006
登場する	-9007
白痴女の	-9008
知らんが	-9009
知りたい	-9010
社会契約	-9011
私の場合	-9012
私の考え	-9013
私はその	-9014
終わった	-9015
義父さん	-9016
者になる	-9017
自分の殻	-9018
自己欺瞞	-9019
被害に遭	-9020
解らない	-9021
言うのは	-9022
言ってた	-9023
言葉には	-9024
誰だって	-9025
負けかな	-9026
通信語録	-9027
=1/8,	-9028
?!?!!	-9029
ences	-9030
umber	-9031
valid	-9032
▁7:09	-9033
▁7:31	-9034
▁Fore	-9035
▁Pope	-9036
▁anxi	-9037
▁dest	-9038
▁face	-9039
▁file	-9040
▁fine	-9041
▁form	-9042
▁give	-9043
▁hard	-9044
▁hell	-9045
▁indi	-9046
▁main	-9047
▁make	-9048
▁note	-9049
▁orig	-9050
▁plan	-9051
▁play	-9052
▁prop	-9053
▁salv	-9054
▁save	-9055
▁shap	-9056
▁upon	-9057
▁well	-9058
▁Àilì	-9059
▁これらの	-9060
▁これらは	-9061
▁ただただ	-9062
ありますか	-9063
ある日突然	-9064
いいかげん	-9065
おじさんが	-9066
があること	-9067
があるのさ	-9068
があるのは	-9069
がおすすめ	-9070
がちょっと	-9071
が私にある	-9072
ことが多い	-9073
ことは可能	-9074
これからも	-9075
これ以上の	-9076
こんにちは	-9077
したとたん	-9078
してこない	-9079
してるだけ	-9080
じゃねえか	-9081
すべからず	-9082
することの	-9083
するだけで	-9084
するような	-9085
するように	-9086
そうだった	-9087
そして私は	-9088
それだけが	-9089
それらしい	-9090
それ以外は	-9091
だったのだ	-9092
だとしたら	-9093
だめなんだ	-9094
ってんのさ	-9095
ってんのは	-9096
つうのはさ	-9097
でいいから	-9098
でっしゃろ	-9099
でのたうち	-9100
でもあった	-9101
という仮定	-9102
といったら	-9103
とおもうよ	-9104
と思っても	-9105
と思ってる	-9106
どうすれば	-9107
なんだから	-9108
にあたって	-9109
にとっても	-9110
ねえからな	-9111
のではない	-9112
のコメント	-9113
ばれている	-9114
もないのに	-9115
ものであり	-9116
ものとして	-9117
やっていた	-9118
らしかった	-9119
られるのは	-9120
わからんよ	-9121
わなかった	-9122
を与えよう	-9123
を見極める	-9124
オマエには	-9125
スタックの	-9126
バカにする	-9127
・・・!(	-9128
・・・?(	-9129
一体なにを	-9130
五体不満足	-9131
人のために	-9132
人格がいる	-9133
傾向がある	-9134
助かります	-9135
問いかける	-9136
地獄の餓鬼	-9137
地球温暖化	-9138
大丈夫だよ	-9139
女に対する	-9140
好かれたい	-9141
心の底から	-9142
思いついた	-9143
意味のある	-9144
意志がある	-9145
愛してない	-9146
感じがする	-9147
欲しくない	-9148
気になって	-9149
気持ちいい	-9150
満ちている	-9151
猫ちゃんの	-9152
理解できる	-9153
目的がある	-9154
知っていて	-9155
立っている	-9156
笑っている	-9157
自分自身が	-9158
自己正当化	-9159
自意識過剰	-9160
逃げていく	-9161
関係のない	-9162
=1/12,	-9163
=1/20,	-9164
Paraph	-9165
client	-9166
extend	-9167
ligion	-9168
solute	-9169
▁17:44	-9170
▁18:05	-9171
▁2024/	-9172
▁count	-9173
▁curse	-9174
▁deter	-9175
▁heard	-9176
▁ideal	-9177
▁sound	-9178
▁steal	-9179
▁whisp	-9180
おかあさんが	-9181
があるだろう	-9182
があるんだよ	-9183
がやってきて	-9184
ことがあった	-9185
この世で一番	-9186
ごめんなさい	-9187
ざるをえない	-9188
しております	-9189
してくれない	-9190
しまいました	-9191
そういうのが	-9192
それについて	-9193
それに対して	-9194
だのといった	-9195
ちょさくけん	-9196
でありながら	-9197
というわけで	-9198
という概念は	-9199
とかだったら	-9200
とかではない	-9201
と思いながら	-9202
と思った瞬間	-9203
と言っている	-9204
どう考えても	-9205
なかったから	-9206
なにかだった	-9207
ならなんでも	-9208
にどのように	-9209
になるだろう	-9210
のことだった	-9211
よくわかった	-9212
を知っている	-9213
ジャスティン	-9214
ナニカがある	-9215
ファンタジー	-9216
人間つうのは	-9217
人間に対する	-9218
何一つとして	-9219
名前書いたら	-9220
感想ですよね	-9221
成り立たない	-9222
支配している	-9223
気が済まない	-9224
相手のことを	-9225
自分のことが	-9226
言い換えると	-9227
chatGPT	-9228
ication	-9229
ilename	-9230
▁Kimura	-9231
▁assume	-9232
▁author	-9233
▁except	-9234
▁friend	-9235
▁method	-9236
▁parsed	-9237
▁please	-9238
▁wanted	-9239
かもしれないが	-9240
があったとして	-9241
ことがあります	-9242
じゃないんだよ	-9243
ちょっとまって	-9244
とおもっている	-9245
と思われている	-9246
なくなっていく	-9247
に決まっている	-9248
わかってくれる	-9249
メフィストフェ	-9250
敵対者に対して	-9251
私が神を信じる	-9252
pecially	-9253
▁Phoneme	-9254
▁Pyworld	-9255
▁anymore	-9256
▁feeling	-9257
▁mistake	-9258
▁overlap	-9259
▁problem	-9260
▁written	-9261
うううううううう	-9262
である必要がある	-9263
どいつもこいつも	-9264
なくなってしまう	-9265
▁absolute	-9266
▁original	-9267
▁pleasure	-9268
▁religion	-9269
▁アナタに会いたい	-9270
をすることによって	-9271
バイアスが存在する	-9272
Paraphrase	-9273
▁emotional	-9274
名前書いたら負けかな	-9275
synthesized	-9276
なければならないだろう	-9277
!!!!!!!!!!!!	-9278
AudioSegment	-9279
▁personality	-9280
▁understanding	-9281
名前書いたら負けかなと思っている	-9282
'.	-9283
)↑	-9284
)・	-9285
)～	-9286
.(	-9287
.7	-9288
5)	-9289
:〜	-9290
?;	-9291
CM	-9292
Em	-9293
Fi	-9294
IA	-9295
ME	-9296
OX	-9297
RE	-9298
TY	-9299
UN	-9300
Wi	-9301
ax	-9302
ex	-9303
ja	-9304
pm	-9305
yp	-9306
‿・	-9307
▁↑	-9308
▁【	-9309
▁で	-9310
▁ば	-9311
▁み	-9312
▁゙	-9313
▁キ	-9314
▁ラ	-9315
▁実	-9316
▁気	-9317
▁街	-9318
、8	-9319
、“	-9320
々と	-9321
あだ	-9322
あっ	-9323
えよ	-9324
おで	-9325
おと	-9326
おわ	-9327
お母	-9328
お父	-9329
お見	-9330
がう	-9331
が強	-9332
が混	-9333
きき	-9334
きん	-9335
ぎに	-9336
げー	-9337
ごく	-9338
ささ	-9339
じめ	-9340
すけ	-9341
ちい	-9342
つつ	-9343
つる	-9344
づね	-9345
てか	-9346
てて	-9347
とに	-9348
と結	-9349
と違	-9350
どん	-9351
なけ	-9352
なー	-9353
に追	-9354
の値	-9355
の利	-9356
の声	-9357
の有	-9358
の色	-9359
の類	-9360
ばら	-9361
びら	-9362
ふさ	-9363
ほほ	-9364
めば	-9365
やま	-9366
よる	-9367
り高	-9368
るよ	-9369
わが	-9370
わら	-9371
をこ	-9372
を向	-9373
を強	-9374
を抑	-9375
を施	-9376
を連	-9377
を除	-9378
アピ	-9379
イソ	-9380
エラ	-9381
カ月	-9382
キモ	-9383
キン	-9384
クク	-9385
クレ	-9386
ココ	-9387
サオ	-9388
シア	-9389
シナ	-9390
シラ	-9391
ズレ	-9392
ダダ	-9393
ダン	-9394
ッフ	-9395
ツイ	-9396
トロ	-9397
ドア	-9398
ナゾ	-9399
ニア	-9400
ノリ	-9401
パス	-9402
フシ	-9403
ベタ	-9404
ホッ	-9405
ポリ	-9406
マゴ	-9407
ママ	-9408
ミカ	-9409
メラ	-9410
ヤク	-9411
ルラ	-9412
ーす	-9413
一位	-9414
一杯	-9415
一歩	-9416
一発	-9417
丁度	-9418
世に	-9419
並び	-9420
中央	-9421
乞食	-9422
人権	-9423
仏教	-9424
令和	-9425
以降	-9426
仮想	-9427
仰る	-9428
伴侶	-9429
位相	-9430
体は	-9431
体力	-9432
体現	-9433
何個	-9434
何者	-9435
促進	-9436
保持	-9437
信頼	-9438
側で	-9439
偶像	-9440
偶然	-9441
先入	-9442
先輩	-9443
全般	-9444
内の	-9445
冗長	-9446
出せ	-9447
出世	-9448
切断	-9449
到底	-9450
制定	-9451
匂い	-9452
十字	-9453
半端	-9454
参照	-9455
及ぶ	-9456
台詞	-9457
同意	-9458
味わ	-9459
問う	-9460
四方	-9461
回避	-9462
在り	-9463
基礎	-9464
境地	-9465
売れ	-9466
変形	-9467
外れ	-9468
夜の	-9469
大事	-9470
大人	-9471
大分	-9472
大別	-9473
大嘘	-9474
大島	-9475
天文	-9476
女だ	-9477
如何	-9478
始め	-9479
委員	-9480
姿勢	-9481
娘が	-9482
学ぶ	-9483
学歴	-9484
実体	-9485
家は	-9486
家を	-9487
寄生	-9488
寝た	-9489
審美	-9490
寿命	-9491
左辺	-9492
差別	-9493
常々	-9494
常識	-9495
平成	-9496
平穏	-9497
年に	-9498
年を	-9499
忌み	-9500
快人	-9501
急き	-9502
恒久	-9503
悪な	-9504
想い	-9505
愚痴	-9506
愛し	-9507
感と	-9508
憎悪	-9509
成績	-9510
戦う	-9511
所詮	-9512
手前	-9513
折り	-9514
抜か	-9515
拡張	-9516
捏造	-9517
掘り	-9518
探知	-9519
提出	-9520
支援	-9521
敢行	-9522
敵が	-9523
旋律	-9524
日を	-9525
昔の	-9526
景色	-9527
暖房	-9528
暗殺	-9529
暴露	-9530
書は	-9531
最強	-9532
最新	-9533
本位	-9534
枚も	-9535
様子	-9536
正気	-9537
残虐	-9538
比喩	-9539
江藤	-9540
油断	-9541
海外	-9542
涙が	-9543
混沌	-9544
無効	-9545
物議	-9546
特殊	-9547
獄卒	-9548
王子	-9549
玩具	-9550
生産	-9551
用意	-9552
用紙	-9553
番組	-9554
痛感	-9555
白状	-9556
皮肉	-9557
監督	-9558
直に	-9559
相互	-9560
相同	-9561
相談	-9562
矮小	-9563
硫黄	-9564
確定	-9565
示欲	-9566
示録	-9567
科白	-9568
稼働	-9569
立た	-9570
筋肉	-9571
箇所	-9572
系が	-9573
結晶	-9574
胃が	-9575
胸に	-9576
脂肪	-9577
脚本	-9578
脳は	-9579
腹を	-9580
舞い	-9581
花子	-9582
若干	-9583
蔓延	-9584
薬を	-9585
虐げ	-9586
血の	-9587
行列	-9588
表面	-9589
褒め	-9590
見做	-9591
覚悟	-9592
誇大	-9593
誉め	-9594
誰だ	-9595
誹る	-9596
警察	-9597
谷の	-9598
赤子	-9599
走り	-9600
足を	-9601
躊躇	-9602
農相	-9603
迷い	-9604
迷う	-9605
送り	-9606
連絡	-9607
連続	-9608
週間	-9609
選別	-9610
重い	-9611
重荷	-9612
金が	-9613
金の	-9614
長期	-9615
閉ざ	-9616
閾値	-9617
隠す	-9618
露呈	-9619
面の	-9620
音は	-9621
飛ぶ	-9622
食い	-9623
食事	-9624
首長	-9625
駆け	-9626
騒ぐ	-9627
高級	-9628
龍神	-9629
16,	-9630
3%9	-9631
7%9	-9632
9%8	-9633
?!(	-9634
?!?	-9635
KAN	-9636
You	-9637
arn	-9638
con	-9639
ety	-9640
ior	-9641
its	-9642
ize	-9643
kmr	-9644
led	-9645
ret	-9646
txt	-9647
ube	-9648
yle	-9649
▁16	-9650
▁4.	-9651
▁7、	-9652
▁Be	-9653
▁Cm	-9654
▁br	-9655
▁os	-9656
▁いま	-9657
▁お前	-9658
▁ほら	-9659
▁同じ	-9660
▁嫌い	-9661
▁村江	-9662
▁盗聴	-9663
▁逆に	-9664
▁過去	-9665
あがる	-9666
あだ名	-9667
あの子	-9668
いいぞ	-9669
いっぱ	-9670
いやな	-9671
いわば	-9672
うける	-9673
うこと	-9674
えたい	-9675
おきに	-9676
おくれ	-9677
おんな	-9678
かくな	-9679
かせて	-9680
がして	-9681
がりの	-9682
が変わ	-9683
が見え	-9684
けどね	-9685
この上	-9686
これも	-9687
ごはん	-9688
さまを	-9689
さんな	-9690
さんへ	-9691
しかけ	-9692
しつづ	-9693
してこ	-9694
じゃね	-9695
すなよ	-9696
すらし	-9697
すり替	-9698
するし	-9699
その分	-9700
それか	-9701
たどり	-9702
たのむ	-9703
だれが	-9704
っくの	-9705
ったの	-9706
つくる	-9707
つぶし	-9708
とくに	-9709
と考え	-9710
どこが	-9711
ないね	-9712
なおも	-9713
ならん	-9714
なりき	-9715
なりに	-9716
な態度	-9717
にその	-9718
に近い	-9719
に近づ	-9720
のかと	-9721
のさば	-9722
の先生	-9723
の変化	-9724
の女王	-9725
の提示	-9726
の痛み	-9727
の高い	-9728
はいる	-9729
はずの	-9730
はなし	-9731
ばって	-9732
ひろゆ	-9733
ふつう	-9734
ふんど	-9735
ませた	-9736
みたか	-9737
みても	-9738
むしゃ	-9739
やしい	-9740
やす子	-9741
やつが	-9742
ゅうに	-9743
よいか	-9744
るのか	-9745
れてた	-9746
わけの	-9747
わして	-9748
をかけ	-9749
をよく	-9750
を想起	-9751
を描き	-9752
を無視	-9753
を買う	-9754
アタリ	-9755
アート	-9756
ウラで	-9757
カイロ	-9758
カルト	-9759
カード	-9760
ゴミを	-9761
サイク	-9762
サイズ	-9763
サイン	-9764
サマエ	-9765
ショー	-9766
スクリ	-9767
スライ	-9768
セル化	-9769
ツイン	-9770
ティア	-9771
デフォ	-9772
ナルシ	-9773
ハリボ	-9774
ファザ	-9775
ブラシ	-9776
ブロッ	-9777
プロセ	-9778
ホンの	-9779
ホーム	-9780
ボーイ	-9781
マスク	-9782
ムード	-9783
リーズ	-9784
ロイン	-9785
ンティ	-9786
ンプル	-9787
ールの	-9788
ーーー	-9789
一人物	-9790
一番に	-9791
万能の	-9792
不安な	-9793
不安定	-9794
不明瞭	-9795
与えた	-9796
中には	-9797
中心に	-9798
二つの	-9799
人なら	-9800
今日の	-9801
付けた	-9802
仮説は	-9803
伝えて	-9804
伝わり	-9805
伝わる	-9806
似合い	-9807
働いて	-9808
僕には	-9809
先入観	-9810
光あれ	-9811
入って	-9812
内容は	-9813
出そう	-9814
前提で	-9815
勝利の	-9816
化して	-9817
単語の	-9818
可愛い	-9819
同性愛	-9820
向きの	-9821
唱える	-9822
四方八	-9823
困った	-9824
国家に	-9825
外部の	-9826
大島弓	-9827
天国の	-9828
奪い去	-9829
奴らは	-9830
妄想を	-9831
妬んで	-9832
嫌いで	-9833
容易に	-9834
小学校	-9835
小男の	-9836
小細工	-9837
少女の	-9838
平和の	-9839
平気で	-9840
形態素	-9841
彼等に	-9842
彼等の	-9843
得ない	-9844
御霊が	-9845
必要は	-9846
性格の	-9847
惨めに	-9848
意中の	-9849
意図が	-9850
感じは	-9851
手法を	-9852
打って	-9853
抜ける	-9854
捨てた	-9855
捨てて	-9856
探求者	-9857
描けて	-9858
描けば	-9859
携えて	-9860
攻撃が	-9861
攻撃は	-9862
敗けた	-9863
文字の	-9864
既存の	-9865
日記の	-9866
昔から	-9867
昨今は	-9868
曖昧な	-9869
有効な	-9870
望んで	-9871
枠組み	-9872
概念だ	-9873
歌って	-9874
歩いて	-9875
殺そう	-9876
気が狂	-9877
気分に	-9878
決めた	-9879
泣いて	-9880
海外の	-9881
溶けて	-9882
無から	-9883
無言で	-9884
無駄な	-9885
物語を	-9886
特別に	-9887
独りで	-9888
現れて	-9889
現代の	-9890
男にも	-9891
症状は	-9892
益神様	-9893
目が醒	-9894
目には	-9895
目的は	-9896
目的を	-9897
目覚め	-9898
相対性	-9899
真です	-9900
真実の	-9901
知らぬ	-9902
知能は	-9903
確かだ	-9904
窓から	-9905
立てた	-9906
立てる	-9907
竜の母	-9908
等しい	-9909
総じて	-9910
自分も	-9911
自己を	-9912
舞台の	-9913
芸術的	-9914
英語を	-9915
英語圏	-9916
荒らし	-9917
行って	-9918
行動を	-9919
見かけ	-9920
見捨て	-9921
覚えた	-9922
記憶を	-9923
誇らし	-9924
諸教会	-9925
越した	-9926
身に着	-9927
身体的	-9928
通じて	-9929
通常の	-9930
通常は	-9931
遠回し	-9932
避ける	-9933
部分を	-9934
錯誤の	-9935
隠れて	-9936
雑多な	-9937
面白く	-9938
順番に	-9939
騙され	-9940
魅力的	-9941
魔法陣	-9942
黙示録	-9943
////	-9944
?・・・	-9945
They	-9946
alue	-9947
angu	-9948
anup	-9949
body	-9950
ings	-9951
line	-9952
omen	-9953
wise	-9954
▁0.5	-9955
▁12・	-9956
▁BPM	-9957
▁Don	-9958
▁Now	-9959
▁Yes	-9960
▁bur	-9961
▁car	-9962
▁glo	-9963
▁key	-9964
▁kis	-9965
▁pos	-9966
▁ser	-9967
▁thr	-9968
▁yet	-9969
▁かつて	-9970
▁この俺	-9971
▁さらに	-9972
▁その時	-9973
▁ですが	-9974
▁なんと	-9975
▁アル子	-9976
▁オーバ	-9977
。・・・	-9978
」・・・	-9979
ありえん	-9980
あんなに	-9981
いいだろ	-9982
いいなり	-9983
いい加減	-9984
いうなら	-9985
いじめて	-9986
いったん	-9987
いってる	-9988
いてない	-9989
いでいる	-9990
いないと	-9991
いまから	-9992
いやいや	-9993
いるのか	-9994
おかしく	-9995
かないと	-9996
がよくて	-9997
が正しい	-9998
が生じる	-9999
きたんだ	-10000
げている	-10001
このまま	-10002
さがある	-10003
させられ	-10004
しっかり	-10005
してもら	-10006
してやる	-10007
しまいに	-10008
しやすい	-10009
すこしは	-10010
すっぱい	-10011
するため	-10012
するなよ	-10013
せやから	-10014
そうかな	-10015
そうだよ	-10016
その場合	-10017
その理論	-10018
それから	-10019
それまで	-10020
それゆえ	-10021
それらを	-10022
だけしか	-10023
だけだし	-10024
つっても	-10025
つねづね	-10026
できねえ	-10027
できれば	-10028
ではある	-10029
ときたら	-10030
ところだ	-10031
とっくの	-10032
と化した	-10033
どこかで	-10034
どっかの	-10035
ないのは	-10036
ないよね	-10037
ならある	-10038
なりたい	-10039
なんやで	-10040
にしたい	-10041
になれば	-10042
によると	-10043
に立って	-10044
に限って	-10045
のはなし	-10046
の考えた	-10047
はすべて	-10048
は自分の	-10049
ふんどし	-10050
ませんよ	-10051
まともな	-10052
まらない	-10053
みたいだ	-10054
みんなに	-10055
もう一生	-10056
ものごと	-10057
ものには	-10058
もろもろ	-10059
よくわか	-10060
よく考え	-10061
りながら	-10062
るような	-10063
るんだよ	-10064
わかるが	-10065
わけです	-10066
を与えた	-10067
を教えて	-10068
を超える	-10069
んだった	-10070
んでいて	-10071
んできた	-10072
んですが	-10073
アイツは	-10074
アルファ	-10075
エクセル	-10076
エゴイス	-10077
オマエも	-10078
カマキリ	-10079
コスプレ	-10080
コロコロ	-10081
サイトを	-10082
サキュバ	-10083
ジュリー	-10084
スタッフ	-10085
スタンス	-10086
タイトル	-10087
ティブな	-10088
デッサン	-10089
ニヤニヤ	-10090
ネットに	-10091
ハハハハ	-10092
ブログに	-10093
プセル化	-10094
ベッドの	-10095
メディア	-10096
ワタシを	-10097
一切合切	-10098
三重にも	-10099
不名誉な	-10100
不快がる	-10101
不快感を	-10102
世界中の	-10103
人間なぞ	-10104
位置する	-10105
何が違う	-10106
何の価値	-10107
何千倍も	-10108
出します	-10109
出ている	-10110
反発する	-10111
古来から	-10112
可能性の	-10113
可能性も	-10114
問われる	-10115
嘘をつく	-10116
好き好き	-10117
実用的な	-10118
寝ないで	-10119
少しずつ	-10120
必要ない	-10121
忘れるな	-10122
思わない	-10123
急き立て	-10124
愛してる	-10125
憑りつか	-10126
指します	-10127
掲示板で	-10128
敵対者の	-10129
文字通り	-10130
文章生成	-10131
日常生活	-10132
時の日か	-10133
書いてる	-10134
本当なら	-10135
植え付け	-10136
次に来る	-10137
歯ブラシ	-10138
江藤農相	-10139
理解した	-10140
男キャラ	-10141
発見した	-10142
社会的な	-10143
私だって	-10144
私のこと	-10145
私自身の	-10146
美しくて	-10147
者こそが	-10148
自分以外	-10149
行動に移	-10150
裏付ける	-10151
見返りを	-10152
言っても	-10153
音声送信	-10154
風の谷の	-10155
10000	-10156
=1/10	-10157
ading	-10158
eting	-10159
imate	-10160
items	-10161
itive	-10162
kmrno	-10163
ments	-10164
onder	-10165
ories	-10166
other	-10167
pport	-10168
ready	-10169
stems	-10170
ually	-10171
ython	-10172
▁7:18	-10173
▁7:30	-10174
▁7:43	-10175
▁7:56	-10176
▁8:03	-10177
▁8:08	-10178
▁been	-10179
▁born	-10180
▁burn	-10181
▁cogn	-10182
▁dist	-10183
▁duty	-10184
▁game	-10185
▁grow	-10186
▁hate	-10187
▁hear	-10188
▁kind	-10189
▁lack	-10190
▁melt	-10191
▁norm	-10192
▁pity	-10193
▁requ	-10194
▁tool	-10195
▁true	-10196
▁wide	-10197
▁こうした	-10198
▁それとも	-10199
▁ところで	-10200
▁アナタの	-10201
▁何故なら	-10202
あげている	-10203
ある一定の	-10204
いうことは	-10205
いたのです	-10206
いままでの	-10207
いるでしょ	-10208
うわっつら	-10209
えなくなる	-10210
えるだろう	-10211
おもしろい	-10212
かいまかと	-10213
がないのに	-10214
が出てくる	-10215
けませんか	-10216
こう言った	-10217
ことだけが	-10218
ことだけを	-10219
ことを聞く	-10220
このところ	-10221
されており	-10222
している時	-10223
してくれた	-10224
してんだよ	-10225
すぎるから	-10226
すぎるだろ	-10227
それだけは	-10228
それだって	-10229
それは単に	-10230
たちどころ	-10231
ためだけの	-10232
ちがいない	-10233
ちゃっちい	-10234
ってもらう	-10235
ってるとか	-10236
つけられる	-10237
であるから	-10238
というのか	-10239
という名の	-10240
という感情	-10241
という立場	-10242
という精神	-10243
とするなら	-10244
と言われる	-10245
どういった	-10246
どうしたの	-10247
ないでしょ	-10248
ないものを	-10249
ないように	-10250
なっちゃう	-10251
なるものを	-10252
なんだこの	-10253
なんである	-10254
にそれぞれ	-10255
によっては	-10256
に出てくる	-10257
に当たって	-10258
に閉じこも	-10259
ねえんだよ	-10260
のであれば	-10261
は何ですか	-10262
ぶっちゃけ	-10263
ほうが絶対	-10264
ほしかった	-10265
またなんか	-10266
みたいな顔	-10267
ものなのか	-10268
やめてくれ	-10269
ようになり	-10270
られていて	-10271
わかるかい	-10272
を持たない	-10273
を繰り返し	-10274
アニメ作画	-10275
オリジナル	-10276
コーヒーの	-10277
ジョーカー	-10278
スクリプト	-10279
ソケットの	-10280
ターゲット	-10281
バイアスを	-10282
フレッシュ	-10283
モノホンの	-10284
レーション	-10285
交感神経の	-10286
京介さんは	-10287
人の気持ち	-10288
人間である	-10289
他人として	-10290
住んでいる	-10291
勝っている	-10292
受け取って	-10293
合っている	-10294
女のことを	-10295
好きなもの	-10296
嫌っている	-10297
完全に可能	-10298
必要以上に	-10299
感じている	-10300
憎んでいる	-10301
手に入れた	-10302
本当の真実	-10303
概念として	-10304
欠かさない	-10305
欠けている	-10306
死んでいく	-10307
気になった	-10308
決してない	-10309
消え去って	-10310
現象がある	-10311
生きている	-10312
生じている	-10313
真に受ける	-10314
神ではない	-10315
神の持ち物	-10316
私にとって	-10317
私は自分の	-10318
義父さんの	-10319
聞こえない	-10320
自分だけの	-10321
自分自身を	-10322
興味を持つ	-10323
英語の勉強	-10324
認められて	-10325
資料なしで	-10326
通用しない	-10327
ctions	-10328
python	-10329
sample	-10330
wwwwww	-10331
▁14:50	-10332
▁15:34	-10333
▁16:37	-10334
▁16:57	-10335
▁17:48	-10336
▁17:51	-10337
▁17:55	-10338
▁after	-10339
▁force	-10340
▁great	-10341
▁impro	-10342
▁incre	-10343
▁langu	-10344
▁model	-10345
▁often	-10346
▁parad	-10347
▁psych	-10348
▁sense	-10349
▁start	-10350
▁state	-10351
▁today	-10352
▁このように	-10353
▁そのような	-10354
▁その代わり	-10355
▁時代錯誤の	-10356
ああああああ	-10357
おかあさんに	-10358
が存在しない	-10359
くなっていく	-10360
くらいにしか	-10361
ことができた	-10362
このことから	-10363
されていると	-10364
しかもそれを	-10365
じゃねえのか	-10366
するしかない	-10367
するとしたら	-10368
それにしても	-10369
それに対する	-10370
そんなことは	-10371
だったという	-10372
っていうのも	-10373
というわけだ	-10374
とおもったが	-10375
とは限らない	-10376
どうするんだ	-10377
なくなります	-10378
なんですかね	-10379
なんなんだよ	-10380
にしてみれば	-10381
になっちゃう	-10382
になるために	-10383
に興味がある	-10384
のほうがいい	-10385
はありません	-10386
もうこれ以上	-10387
ようなものだ	-10388
よくわからん	-10389
わかんねえよ	-10390
を愛している	-10391
を感じている	-10392
んじゃないか	-10393
んだとしたら	-10394
エネルギーが	-10395
キャラクタを	-10396
キリスト教を	-10397
人というのは	-10398
好かれている	-10399
好きになって	-10400
彼岸の向こう	-10401
御霊が諸教会	-10402
自分がいかに	-10403
自分で自分を	-10404
自分に対して	-10405
自分に対する	-10406
自分のほうが	-10407
言い換えれば	-10408
ossible	-10409
reement	-10410
ression	-10411
▁comput	-10412
▁listen	-10413
▁little	-10414
▁living	-10415
▁necess	-10416
▁others	-10417
▁really	-10418
▁toward	-10419
▁コパイロット	-10420
▁耳のある者は	-10421
が私にある以上	-10422
していなかった	-10423
しているのです	-10424
そうなっている	-10425
っていうことを	-10426
なかったのです	-10427
なのではないか	-10428
にきまっている	-10429
よく知っている	-10430
をしているんだ	-10431
メジャーコード	-10432
取るに足らない	-10433
可能性すらある	-10434
成り立っている	-10435
求められている	-10436
込められている	-10437
3%80%81%	-10438
filepath	-10439
requency	-10440
▁Forever	-10441
▁Invalid	-10442
▁already	-10443
▁changes	-10444
▁country	-10445
▁created	-10446
▁foreign	-10447
▁pyworld	-10448
▁ridicul	-10449
▁strange	-10450
▁systems	-10451
お願いいたします	-10452
ことを聞くがよい	-10453
それっぽいことを	-10454
に他ならなかった	-10455
はたしてそうかな	-10456
インプットされた	-10457
エゴイスティック	-10458
悪いことではない	-10459
▁adjusted	-10460
▁fleeting	-10461
▁perspect	-10462
▁politics	-10463
▁yourself	-10464
ことができなかった	-10465
なくなってしまった	-10466
ピンク色の象さんの	-10467
存在すらしていない	-10468
御霊が諸教会に言う	-10469
次のように言われる	-10470
神の持ち物に対して	-10471
▁Christian	-10472
▁challenge	-10473
▁consonant	-10474
▁everytime	-10475
たまったものではない	-10476
▁especially	-10477
▁synthesized	-10478
そのためになにができるの	-10479
～～～～～～～～～～～～～～～～	-10480
#7	-10481
(8	-10482
)7	-10483
/%	-10484
1)	-10485
2)	-10486
65	-10487
7,	-10488
BB	-10489
FA	-10490
HH	-10491
LL	-10492
MM	-10493
ON	-10494
PE	-10495
Th	-10496
UI	-10497
][	-10498
__	-10499
ee	-10500
eg	-10501
ei	-10502
fo	-10503
ik	-10504
pc	-10505
ài	-10506
ào	-10507
÷2	-10508
ān	-10509
ǎo	-10510
▁き	-10511
▁た	-10512
▁ふ	-10513
▁ぶ	-10514
▁バ	-10515
▁助	-10516
▁数	-10517
▁新	-10518
▁知	-10519
▁아	-10520
♀(	-10521
、6	-10522
ぁぁ	-10523
いみ	-10524
うと	-10525
ぉぉ	-10526
おる	-10527
お得	-10528
お腹	-10529
かう	-10530
がお	-10531
がん	-10532
が向	-10533
が開	-10534
きだ	-10535
くの	-10536
くは	-10537
くら	-10538
ぐれ	-10539
げな	-10540
こま	-10541
さか	-10542
ざる	-10543
しち	-10544
しや	-10545
じわ	-10546
すっ	-10547
たが	-10548
たて	-10549
ちっ	-10550
つど	-10551
で割	-10552
どろ	-10553
なぎ	-10554
に一	-10555
に値	-10556
に分	-10557
に則	-10558
に属	-10559
に恋	-10560
に愛	-10561
に染	-10562
に沿	-10563
ぬけ	-10564
の反	-10565
の域	-10566
の妹	-10567
の試	-10568
はき	-10569
はる	-10570
ひこ	-10571
ふざ	-10572
べた	-10573
ぼう	-10574
ぼり	-10575
みさ	-10576
むり	-10577
めで	-10578
めと	-10579
もど	-10580
やさ	-10581
やわ	-10582
よせ	-10583
りだ	-10584
るに	-10585
れが	-10586
ろよ	-10587
わね	-10588
をあ	-10589
をき	-10590
をた	-10591
を創	-10592
を外	-10593
を打	-10594
を招	-10595
を授	-10596
を知	-10597
を破	-10598
を組	-10599
を課	-10600
を高	-10601
んは	-10602
イの	-10603
イカ	-10604
ウン	-10605
オラ	-10606
カラ	-10607
カロ	-10608
ガヨ	-10609
キル	-10610
ギレ	-10611
クマ	-10612
クン	-10613
ゲン	-10614
コウ	-10615
コソ	-10616
コッ	-10617
ゴロ	-10618
シイ	-10619
シス	-10620
シン	-10621
スペ	-10622
ソリ	-10623
ツボ	-10624
トー	-10625
ニの	-10626
ニン	-10627
ネガ	-10628
ノン	-10629
ハウ	-10630
ハー	-10631
バキ	-10632
パク	-10633
パズ	-10634
パッ	-10635
ブチ	-10636
ベン	-10637
ホル	-10638
ボケ	-10639
ミニ	-10640
ミャ	-10641
メガ	-10642
ヤバ	-10643
ユニ	-10644
ラス	-10645
レム	-10646
ワリ	-10647
ンで	-10648
ヴォ	-10649
ーブ	-10650
一役	-10651
一択	-10652
一視	-10653
万円	-10654
三人	-10655
三角	-10656
下品	-10657
不倫	-10658
不動	-10659
不協	-10660
不思	-10661
不要	-10662
世話	-10663
両親	-10664
中途	-10665
主に	-10666
乳首	-10667
云う	-10668
交流	-10669
人外	-10670
今回	-10671
付近	-10672
代々	-10673
休符	-10674
伝統	-10675
伴う	-10676
伴奏	-10677
低能	-10678
体感	-10679
余興	-10680
作為	-10681
保護	-10682
俺も	-10683
優香	-10684
元で	-10685
先で	-10686
先行	-10687
光速	-10688
全身	-10689
兵器	-10690
到達	-10691
削除	-10692
剥奪	-10693
創発	-10694
加工	-10695
勝負	-10696
反転	-10697
受胎	-10698
受験	-10699
句読	-10700
右辺	-10701
同情	-10702
同様	-10703
名案	-10704
君臨	-10705
呪術	-10706
命名	-10707
商品	-10708
嘘だ	-10709
回帰	-10710
地図	-10711
基盤	-10712
基調	-10713
増殖	-10714
外性	-10715
多用	-10716
夜は	-10717
夢の	-10718
大幅	-10719
大罪	-10720
大蛇	-10721
天井	-10722
奇跡	-10723
奔放	-10724
奪還	-10725
女も	-10726
好む	-10727
好意	-10728
妥当	-10729
妬め	-10730
娘を	-10731
嫌で	-10732
子音	-10733
存分	-10734
存続	-10735
守り	-10736
宝刀	-10737
家庭	-10738
容姿	-10739
宿命	-10740
寄付	-10741
審判	-10742
寿司	-10743
専門	-10744
尺度	-10745
山の	-10746
巨乳	-10747
帰り	-10748
平等	-10749
幼少	-10750
建物	-10751
弟者	-10752
強者	-10753
強調	-10754
強迫	-10755
後は	-10756
後輩	-10757
従う	-10758
得て	-10759
得点	-10760
徳目	-10761
応答	-10762
念じ	-10763
怒鳴	-10764
怠惰	-10765
患者	-10766
悪し	-10767
惨め	-10768
意気	-10769
憐憫	-10770
憑依	-10771
憧れ	-10772
把握	-10773
指す	-10774
排斥	-10775
接触	-10776
操り	-10777
数が	-10778
整合	-10779
斬り	-10780
旅行	-10781
日が	-10782
日の	-10783
日夜	-10784
昔に	-10785
晒す	-10786
暗黙	-10787
更新	-10788
書物	-10789
替え	-10790
有形	-10791
未亡	-10792
本人	-10793
本性	-10794
本足	-10795
村を	-10796
東京	-10797
栄光	-10798
武器	-10799
死の	-10800
残す	-10801
殴り	-10802
水を	-10803
洗礼	-10804
派生	-10805
海原	-10806
漬け	-10807
灰色	-10808
無作	-10809
燃や	-10810
物は	-10811
特別	-10812
狂暴	-10813
狙い	-10814
独創	-10815
猫が	-10816
猫を	-10817
王様	-10818
現状	-10819
甘受	-10820
由来	-10821
番の	-10822
疑似	-10823
痴態	-10824
癖が	-10825
癖を	-10826
皆の	-10827
盗撮	-10828
盲信	-10829
真正	-10830
真逆	-10831
着き	-10832
知れ	-10833
示す	-10834
祝福	-10835
神と	-10836
積分	-10837
突っ	-10838
童貞	-10839
糖質	-10840
結末	-10841
総合	-10842
背後	-10843
自尊	-10844
自慰	-10845
自炊	-10846
自称	-10847
至高	-10848
致命	-10849
舐め	-10850
船の	-10851
色欲	-10852
苦悶	-10853
英訳	-10854
蓄積	-10855
行を	-10856
裁判	-10857
要因	-10858
要望	-10859
覇権	-10860
見下	-10861
見地	-10862
見栄	-10863
規則	-10864
解明	-10865
許し	-10866
話が	-10867
話題	-10868
語の	-10869
説教	-10870
誰の	-10871
調査	-10872
論を	-10873
論文	-10874
論的	-10875
謎の	-10876
貧乏	-10877
赤の	-10878
蹂躙	-10879
軍勢	-10880
転回	-10881
輪郭	-10882
近松	-10883
返せ	-10884
迫り	-10885
追求	-10886
退行	-10887
通称	-10888
逝く	-10889
進む	-10890
進捗	-10891
遅い	-10892
道理	-10893
違法	-10894
遠隔	-10895
配置	-10896
醜く	-10897
醸し	-10898
重み	-10899
量の	-10900
闘争	-10901
階層	-10902
隠し	-10903
隠語	-10904
隣に	-10905
雑談	-10906
難し	-10907
青い	-10908
音源	-10909
頭ン	-10910
頭脳	-10911
風潮	-10912
飛翔	-10913
飴を	-10914
驚く	-10915
魔王	-10916
鶴坂	-10917
黒人	-10918
+10	-10919
5%9	-10920
=6,	-10921
INE	-10922
OOP	-10923
ZEN	-10924
ams	-10925
aos	-10926
bal	-10927
che	-10928
chn	-10929
dep	-10930
edg	-10931
ens	-10932
eod	-10933
ild	-10934
ili	-10935
ken	-10936
key	-10937
min	-10938
msn	-10939
msy	-10940
ntp	-10941
ode	-10942
onǚ	-10943
ood	-10944
ots	-10945
udy	-10946
uke	-10947
uly	-10948
you	-10949
ype	-10950
ōng	-10951
▁17	-10952
▁Hi	-10953
▁Tr	-10954
▁aa	-10955
▁ge	-10956
▁gu	-10957
▁ha	-10958
▁pH	-10959
▁pw	-10960
▁wa	-10961
▁xī	-10962
▁yě	-10963
▁あら	-10964
▁かあ	-10965
▁こと	-10966
▁なに	-10967
▁アリ	-10968
▁兄者	-10969
▁瀬戸	-10970
▁無論	-10971
▁誰も	-10972
●●●	-10973
あかい	-10974
あきら	-10975
いいき	-10976
いい人	-10977
いっそ	-10978
いてて	-10979
いわれ	-10980
いわん	-10981
うさん	-10982
うそだ	-10983
うつ病	-10984
うわあ	-10985
うんぬ	-10986
おおお	-10987
おけば	-10988
おった	-10989
おぼえ	-10990
おもに	-10991
かどう	-10992
から外	-10993
がかり	-10994
がそう	-10995
がその	-10996
がねえ	-10997
がまた	-10998
が一番	-10999
が出て	-11000
が強く	-11001
が最も	-11002
が真実	-11003
きゅう	-11004
くって	-11005
ぐちゃ	-11006
けどな	-11007
けると	-11008
これの	-11009
ごとの	-11010
さとは	-11011
しうる	-11012
したが	-11013
したと	-11014
しろよ	-11015
しんだ	-11016
すのは	-11017
すりゃ	-11018
せい剤	-11019
そこを	-11020
そっか	-11021
その上	-11022
たがる	-11023
ただち	-11024
ためだ	-11025
だいじ	-11026
っかえ	-11027
ったけ	-11028
ってさ	-11029
っぽく	-11030
つうか	-11031
つれて	-11032
でかい	-11033
できん	-11034
でやる	-11035
で見て	-11036
とかも	-11037
ととも	-11038
と人は	-11039
と会話	-11040
と同義	-11041
と推測	-11042
と確信	-11043
と認定	-11044
と説明	-11045
どうも	-11046
どう映	-11047
どおり	-11048
なすが	-11049
なにお	-11050
なると	-11051
なんせ	-11052
にいた	-11053
にかけ	-11054
につな	-11055
にねじ	-11056
にわた	-11057
に勝る	-11058
に変換	-11059
に変調	-11060
に対応	-11061
に感じ	-11062
に立つ	-11063
に見せ	-11064
ねえが	-11065
ねえと	-11066
の判断	-11067
の命令	-11068
の感情	-11069
の感覚	-11070
の根源	-11071
の王冠	-11072
の理論	-11073
の発明	-11074
の神が	-11075
の絵は	-11076
の良い	-11077
はいい	-11078
はじめ	-11079
は全て	-11080
ばらま	-11081
ひどく	-11082
ぶった	-11083
ぶって	-11084
へんの	-11085
ほらな	-11086
ますし	-11087
またい	-11088
まると	-11089
みせて	-11090
みっと	-11091
みてえ	-11092
みない	-11093
むろん	-11094
められ	-11095
も好き	-11096
やめた	-11097
ょうぶ	-11098
よいよ	-11099
よくね	-11100
よほど	-11101
らしき	-11102
らねえ	-11103
らんが	-11104
るだろ	-11105
れるの	-11106
を伸ば	-11107
を出せ	-11108
を喰ら	-11109
を変調	-11110
を得た	-11111
を果た	-11112
を発生	-11113
を観測	-11114
んかい	-11115
んでは	-11116
んやぞ	-11117
アカデ	-11118
アップ	-11119
コッチ	-11120
コマン	-11121
ゴミだ	-11122
ゴミ屑	-11123
サイコ	-11124
サクラ	-11125
スケベ	-11126
ソース	-11127
タリー	-11128
チョウ	-11129
チンポ	-11130
テイで	-11131
トラウ	-11132
トレー	-11133
ニャン	-11134
ハード	-11135
ビーム	-11136
ピズム	-11137
ブサオ	-11138
プライ	-11139
ページ	-11140
ボクの	-11141
ボラン	-11142
マスコ	-11143
マッチ	-11144
マナー	-11145
ミー賞	-11146
ヨーロ	-11147
ラッパ	-11148
リスキ	-11149
ロイト	-11150
ーって	-11151
ールを	-11152
一番の	-11153
一発で	-11154
七つの	-11155
上回る	-11156
下手に	-11157
不協和	-11158
不幸を	-11159
不思議	-11160
主張が	-11161
亘って	-11162
人を騙	-11163
人生が	-11164
今現在	-11165
他人は	-11166
代名詞	-11167
以上は	-11168
会社の	-11169
伝えた	-11170
住んで	-11171
何でも	-11172
何日も	-11173
優れた	-11174
元から	-11175
先生は	-11176
光合成	-11177
入った	-11178
内容を	-11179
写真を	-11180
出てる	-11181
切り離	-11182
刷り込	-11183
努力を	-11184
労力を	-11185
動画の	-11186
句読点	-11187
台無し	-11188
右脳に	-11189
右脳の	-11190
向けて	-11191
周りの	-11192
命令を	-11193
和訳も	-11194
問いを	-11195
嘲笑の	-11196
回答を	-11197
在した	-11198
壊れて	-11199
声真似	-11200
天使の	-11201
天空神	-11202
女にも	-11203
女神の	-11204
好んで	-11205
如何様	-11206
妬んだ	-11207
委員長	-11208
嫉妬顔	-11209
子供が	-11210
存在が	-11211
家に帰	-11212
寝てる	-11213
対象外	-11214
少女だ	-11215
巧みな	-11216
帰って	-11217
常日頃	-11218
影武者	-11219
彼岸の	-11220
心から	-11221
心の中	-11222
心理的	-11223
思う程	-11224
思わず	-11225
思考に	-11226
恐れる	-11227
愉しま	-11228
意志が	-11229
意見は	-11230
意識は	-11231
愚かさ	-11232
愚か者	-11233
感情の	-11234
感情や	-11235
感覚が	-11236
慰める	-11237
技術が	-11238
抜けて	-11239
捉えた	-11240
揃って	-11241
描き方	-11242
描写が	-11243
敗けて	-11244
敗北は	-11245
文字を	-11246
日記を	-11247
昭和の	-11248
時って	-11249
時間で	-11250
時間は	-11251
時間も	-11252
普通は	-11253
最大限	-11254
有する	-11255
有意義	-11256
本人が	-11257
検証を	-11258
楽曲の	-11259
構造は	-11260
模倣霊	-11261
機能を	-11262
正体を	-11263
正当性	-11264
死ねば	-11265
残念な	-11266
殴って	-11267
気分だ	-11268
気分の	-11269
永遠の	-11270
注意を	-11271
滅多に	-11272
滑稽な	-11273
激ヤバ	-11274
点が置	-11275
無形の	-11276
無限個	-11277
無難な	-11278
王女は	-11279
理想の	-11280
理由を	-11281
生理的	-11282
用スク	-11283
男の姿	-11284
男の娘	-11285
男の子	-11286
男性像	-11287
画力が	-11288
疲れた	-11289
白痴の	-11290
的にも	-11291
盛大に	-11292
眺めて	-11293
瞬間に	-11294
研究を	-11295
確実に	-11296
程度で	-11297
程遠い	-11298
積み重	-11299
立ちぬ	-11300
立って	-11301
笑った	-11302
結果の	-11303
絶えず	-11304
継いで	-11305
続けろ	-11306
繰り広	-11307
義父の	-11308
背理の	-11309
背理は	-11310
能力の	-11311
腐った	-11312
自体を	-11313
自己の	-11314
苦しめ	-11315
苦痛に	-11316
苦痛を	-11317
落ちた	-11318
落っこ	-11319
著作物	-11320
装った	-11321
装って	-11322
要素を	-11323
見たら	-11324
見抜く	-11325
視聴者	-11326
親父の	-11327
触れる	-11328
言い表	-11329
言葉に	-11330
記憶が	-11331
詰めて	-11332
読者が	-11333
読者を	-11334
買った	-11335
超人を	-11336
追及者	-11337
送って	-11338
過ぎて	-11339
関係の	-11340
閾値が	-11341
集まり	-11342
難解で	-11343
音声が	-11344
音楽が	-11345
音素の	-11346
頂点に	-11347
飛行機	-11348
食べて	-11349
飽きた	-11350
!?!!	-11351
!??!	-11352
)+',	-11353
)・‿・	-11354
...?	-11355
...。	-11356
8:00	-11357
Chor	-11358
HCTS	-11359
NOTE	-11360
aged	-11361
aken	-11362
ared	-11363
asic	-11364
asis	-11365
char	-11366
cked	-11367
cvid	-11368
empt	-11369
fort	-11370
gest	-11371
host	-11372
iece	-11373
irit	-11374
ived	-11375
ives	-11376
lace	-11377
like	-11378
loat	-11379
ocid	-11380
olen	-11381
ouse	-11382
ried	-11383
that	-11384
ting	-11385
ures	-11386
yout	-11387
àonǚ	-11388
▁!!!	-11389
▁For	-11390
▁Who	-11391
▁acc	-11392
▁beh	-11393
▁civ	-11394
▁cor	-11395
▁eng	-11396
▁fun	-11397
▁hav	-11398
▁inv	-11399
▁isn	-11400
▁lim	-11401
▁lot	-11402
▁put	-11403
▁rel	-11404
▁sav	-11405
▁sim	-11406
▁zhè	-11407
▁いいか	-11408
▁が出力	-11409
▁きっと	-11410
▁これを	-11411
▁ずっと	-11412
▁という	-11413
▁まさか	-11414
▁まるで	-11415
▁例えば	-11416
▁回答者	-11417
▁探求者	-11418
▁自分が	-11419
▁自分は	-11420
▁面白い	-11421
、100	-11422
あげよう	-11423
あっては	-11424
あるほど	-11425
あんなの	-11426
いかなる	-11427
いつまで	-11428
いないし	-11429
いながら	-11430
いなさい	-11431
いますが	-11432
いわゆる	-11433
いわれた	-11434
うるさい	-11435
うれしい	-11436
えるのは	-11437
おまえの	-11438
かかった	-11439
かかない	-11440
からって	-11441
がある時	-11442
がちがう	-11443
が悪くて	-11444
が描いた	-11445
が生えて	-11446
が見えた	-11447
きますよ	-11448
きわめて	-11449
くらいだ	-11450
くらいで	-11451
くれる人	-11452
こいつら	-11453
ここから	-11454
この俺が	-11455
この俺は	-11456
この文章	-11457
この記事	-11458
この顔を	-11459
される側	-11460
しそうに	-11461
したあと	-11462
したって	-11463
したのだ	-11464
してるし	-11465
しないか	-11466
しまって	-11467
しようと	-11468
すぎると	-11469
すだろう	-11470
するのさ	-11471
する行為	-11472
ぜんぜん	-11473
そうして	-11474
そう思い	-11475
そして今	-11476
その場で	-11477
それには	-11478
それよか	-11479
たかった	-11480
たびたび	-11481
ためしに	-11482
だけだろ	-11483
だけでも	-11484
だったな	-11485
だったの	-11486
だよなあ	-11487
ちがうよ	-11488
ちゃった	-11489
つうのを	-11490
つかない	-11491
つくづく	-11492
つってる	-11493
できるよ	-11494
ですから	-11495
でもよい	-11496
とあらば	-11497
という形	-11498
とかおも	-11499
とすれば	-11500
とともに	-11501
とはおも	-11502
とは区別	-11503
とられる	-11504
と仲良く	-11505
と悟った	-11506
どうあが	-11507
どうにも	-11508
どう思う	-11509
なかろう	-11510
なくらい	-11511
なったら	-11512
なるまい	-11513
なんかさ	-11514
なんなん	-11515
になりは	-11516
になるよ	-11517
によれば	-11518
に於いて	-11519
に於ける	-11520
に照らし	-11521
に見えて	-11522
に追いや	-11523
のことで	-11524
のようだ	-11525
の意味が	-11526
はなんだ	-11527
は確かに	-11528
まされた	-11529
まだまだ	-11530
まみれの	-11531
みなさん	-11532
みんなで	-11533
もうこの	-11534
もう少し	-11535
もなにも	-11536
もらった	-11537
やってた	-11538
やつらの	-11539
らしいし	-11540
られても	-11541
り込んで	-11542
るように	-11543
れていて	-11544
わないと	-11545
われます	-11546
をしよう	-11547
をつけた	-11548
を伴なう	-11549
を受け容	-11550
を名乗る	-11551
を変えて	-11552
を変える	-11553
を愛でる	-11554
を手に入	-11555
を通り越	-11556
んところ	-11557
アアアア	-11558
アナタは	-11559
アメーバ	-11560
キャラメ	-11561
コイツは	-11562
コッソリ	-11563
サイトの	-11564
シチュエ	-11565
ショック	-11566
シリーズ	-11567
ジャンル	-11568
スイッチ	-11569
スカイプ	-11570
ストレス	-11571
スーパー	-11572
セブンス	-11573
ティング	-11574
テンプレ	-11575
ドン引き	-11576
ニコ静の	-11577
ニュース	-11578
ハリボテ	-11579
バインド	-11580
パニック	-11581
ヒロイン	-11582
ピンクの	-11583
フレイン	-11584
メンタル	-11585
ユニコー	-11586
ユーザは	-11587
ラックス	-11588
リストを	-11589
ロボット	-11590
上にいる	-11591
不自然夢	-11592
中途半端	-11593
了解する	-11594
交わした	-11595
人がいた	-11596
人に夢中	-11597
伝えたい	-11598
何なのか	-11599
何も見え	-11600
個人的に	-11601
処女受胎	-11602
出される	-11603
刷り込み	-11604
力のある	-11605
厳密には	-11606
受けする	-11607
受け付け	-11608
古来より	-11609
可哀想な	-11610
吐き出す	-11611
哲学的な	-11612
喋ってる	-11613
垣間見る	-11614
夢の中で	-11615
大大好き	-11616
大嫌いな	-11617
大島弓子	-11618
天地創造	-11619
女として	-11620
女の子を	-11621
嫉妬して	-11622
嫉妬心を	-11623
存在した	-11624
安心して	-11625
実行に移	-11626
当たった	-11627
待ってる	-11628
恣意的に	-11629
悪し様に	-11630
情報統制	-11631
意味をな	-11632
感じない	-11633
感じられ	-11634
抽象化の	-11635
拗ねてる	-11636
持ちえる	-11637
振る舞う	-11638
推し量る	-11639
描いたら	-11640
描かない	-11641
操られる	-11642
時間がか	-11643
時間が経	-11644
書き出し	-11645
来ました	-11646
根本的に	-11647
構造性を	-11648
次の数値	-11649
次の日も	-11650
止まった	-11651
死んじゃ	-11652
殺害予告	-11653
気付いた	-11654
気持ちで	-11655
泣いてる	-11656
無作為に	-11657
無尽蔵に	-11658
無意味だ	-11659
無意味な	-11660
理解する	-11661
生きてる	-11662
盗まれた	-11663
睡眠妨害	-11664
知ってて	-11665
知れない	-11666
示して頂	-11667
神である	-11668
私はこの	-11669
立ち位置	-11670
美少女に	-11671
聞かない	-11672
聞こえて	-11673
自分の姿	-11674
自分語り	-11675
自動的に	-11676
致します	-11677
興味すら	-11678
被害者の	-11679
見えます	-11680
見つけた	-11681
覚せい剤	-11682
言われた	-11683
言葉だけ	-11684
許さない	-11685
許せない	-11686
貴方には	-11687
貴方方の	-11688
遠ざかる	-11689
量子力学	-11690
開始位置	-11691
雰囲気が	-11692
電話交換	-11693
顔をした	-11694
風立ちぬ	-11695
騙された	-11696
7(9)→	-11697
=1/30	-11698
=1/5,	-11699
?????	-11700
ather	-11701
ceive	-11702
enter	-11703
eodor	-11704
ilent	-11705
input	-11706
istic	-11707
msedg	-11708
olish	-11709
olled	-11710
oring	-11711
ously	-11712
pause	-11713
velop	-11714
works	-11715
▁7:12	-11716
▁7:36	-11717
▁8:04	-11718
▁8:14	-11719
▁9:52	-11720
▁best	-11721
▁care	-11722
▁case	-11723
▁cast	-11724
▁cult	-11725
▁disc	-11726
▁feet	-11727
▁init	-11728
▁keep	-11729
▁once	-11730
▁pass	-11731
▁pres	-11732
▁push	-11733
▁rest	-11734
▁says	-11735
▁sign	-11736
▁soon	-11737
▁stri	-11738
▁view	-11739
▁wall	-11740
▁「・・・	-11741
▁そう思い	-11742
▁オマエは	-11743
▁瀬戸快人	-11744
▁自分の餌	-11745
いますよね	-11746
おきながら	-11747
かなにかだ	-11748
かなにかの	-11749
かまわない	-11750
かわいそう	-11751
きょうすけ	-11752
くださいよ	-11753
くっついた	-11754
ここにきて	-11755
ことこそが	-11756
ことなんだ	-11757
ことは偽だ	-11758
こと自体が	-11759
こなかった	-11760
こんなこと	-11761
こんなやつ	-11762
させてきた	-11763
さなかった	-11764
されていて	-11765
されながら	-11766
されるんだ	-11767
され続ける	-11768
したいです	-11769
したいなら	-11770
したかった	-11771
したことを	-11772
した時点で	-11773
しまくって	-11774
すいません	-11775
することだ	-11776
すればよい	-11777
そういえば	-11778
そうだよな	-11779
そうなのか	-11780
そこにある	-11781
そしてもう	-11782
そのものに	-11783
その証拠に	-11784
それをする	-11785
たったこれ	-11786
ための行為	-11787
だからこの	-11788
だがそれは	-11789
だけなんだ	-11790
だと思って	-11791
ってあげる	-11792
っていった	-11793
っているの	-11794
ってるだけ	-11795
ってんのに	-11796
って完全に	-11797
って言って	-11798
であろうか	-11799
できるのは	-11800
できるんだ	-11801
ではないと	-11802
という性質	-11803
という条件	-11804
という状態	-11805
とかいって	-11806
どうなって	-11807
どこがいい	-11808
どのくらい	-11809
なっていく	-11810
なんでしょ	-11811
なんなんだ	-11812
なんのこと	-11813
にしていた	-11814
になるだろ	-11815
に行き着く	-11816
ねえんだな	-11817
のが得意な	-11818
はなかった	-11819
ほんとうは	-11820
ものだけが	-11821
ものだけを	-11822
ものなのだ	-11823
ゆうに凌駕	-11824
ようとする	-11825
ような気が	-11826
わかります	-11827
わかんねえ	-11828
を得ている	-11829
を見ていて	-11830
んだという	-11831
んですかね	-11832
アルファベ	-11833
イケメンの	-11834
エネルギー	-11835
キリストの	-11836
コメント欄	-11837
バッファー	-11838
パターンを	-11839
フォルダー	-11840
フリをする	-11841
ヨーロッパ	-11842
ランダムに	-11843
ワタクシの	-11844
ンティティ	-11845
一体なにが	-11846
一体なんの	-11847
上げられる	-11848
人生だった	-11849
人間という	-11850
今日書いた	-11851
仕方ないよ	-11852
仮説を立て	-11853
何もかもが	-11854
価値のない	-11855
印象を受け	-11856
印象付ける	-11857
可能性を有	-11858
地獄の獄卒	-11859
変わらない	-11860
奈央ちゃん	-11861
女性キャラ	-11862
好きだから	-11863
如何様にも	-11864
山のように	-11865
常日頃から	-11866
彦左衛門と	-11867
必要がない	-11868
思い出した	-11869
思い込んで	-11870
思ってない	-11871
意味はない	-11872
持っていた	-11873
振り向いて	-11874
数値を代入	-11875
書いている	-11876
木村奈央の	-11877
死んだんだ	-11878
死んでいる	-11879
気分になる	-11880
無形の有形	-11881
無限ループ	-11882
猫ちゃんと	-11883
猫ちゃんに	-11884
男性キャラ	-11885
神が死んだ	-11886
神は死んだ	-11887
突如として	-11888
終わらせる	-11889
続いている	-11890
続けた結果	-11891
緻密に推論	-11892
義父さんは	-11893
自信がある	-11894
自分だけが	-11895
自分のもの	-11896
自分の意志	-11897
言いながら	-11898
言っておく	-11899
話しかけた	-11900
誰に対して	-11901
買ってもら	-11902
都合の良い	-11903
閉じ込めて	-11904
隠している	-11905
面白がって	-11906
頭が真っ白	-11907
(・・・?)	-11908
3%83%9	-11909
=1/16,	-11910
Chorus	-11911
Python	-11912
depend	-11913
▁15:43	-11914
▁17:39	-11915
▁17:43	-11916
▁17:53	-11917
▁17:57	-11918
▁18:09	-11919
▁18:16	-11920
▁18:18	-11921
▁18:34	-11922
▁18:42	-11923
▁19:07	-11924
▁19:08	-11925
▁19:31	-11926
▁19:35	-11927
▁19:59	-11928
▁20:06	-11929
▁20:42	-11930
▁20:45	-11931
▁Pitch	-11932
▁Stack	-11933
▁Using	-11934
▁being	-11935
▁brain	-11936
▁disag	-11937
▁doesn	-11938
▁emerg	-11939
▁gazed	-11940
▁happy	-11941
▁laugh	-11942
▁oasis	-11943
▁obser	-11944
▁parts	-11945
▁place	-11946
▁skill	-11947
▁study	-11948
▁sweet	-11949
▁techn	-11950
▁truly	-11951
▁さようなら	-11952
▁それでいて	-11953
▁つまらない	-11954
▁どのような	-11955
▁恥ずかしい	-11956
あなたのわざ	-11957
かくあるべき	-11958
がいたとして	-11959
がちのまじで	-11960
が存在します	-11961
くれなかった	-11962
こういうこと	-11963
ことについて	-11964
ことはできる	-11965
されることを	-11966
しかなかった	-11967
したところで	-11968
しないように	-11969
するくらいの	-11970
するのは真だ	-11971
そうしている	-11972
そこらじゅう	-11973
そしてそれが	-11974
それはそれは	-11975
たとえるなら	-11976
であるがゆえ	-11977
できるように	-11978
ということさ	-11979
ということも	-11980
というものに	-11981
という言葉を	-11982
とおもったら	-11983
とおもわれる	-11984
なんだろうが	-11985
なんでこうも	-11986
なんのために	-11987
にされている	-11988
について考え	-11989
になるんだよ	-11990
にはまったく	-11991
にも程がある	-11992
によって説明	-11993
のないことを	-11994
のメッセージ	-11995
はっはっはっ	-11996
ほしいことを	-11997
めんどくさい	-11998
ものはないよ	-11999
やってること	-12000
ようなことを	-12001
わけでもない	-12002
をしていない	-12003
を与えている	-12004
を与えられた	-12005
アカデミー賞	-12006
インスタント	-12007
コーディング	-12008
ジェクション	-12009
タイプの人間	-12010
ディズニーの	-12011
ニュアンスが	-12012
ブロッキング	-12013
ボランティア	-12014
レイプされた	-12015
不可能である	-12016
二重三重にも	-12017
人間としての	-12018
人間はそれを	-12019
何度も何度も	-12020
千里眼を獲得	-12021
可能性もある	-12022
問われている	-12023
好きじゃない	-12024
好きになった	-12025
嫌いじゃない	-12026
定かではない	-12027
思っていない	-12028
感覚があった	-12029
操られている	-12030
死んでしまう	-12031
相手に対して	-12032
神を信じない	-12033
私にとっては	-12034
自分より弱い	-12035
舞台の背景を	-12036
認識できない	-12037
読んでくれる	-12038
逃れられない	-12039
間違っている	-12040
限りにおいて	-12041
騙されている	-12042
ibility	-12043
ization	-12044
umanity	-12045
visible	-12046
youtube	-12047
▁Teodor	-12048
▁almost	-12049
▁better	-12050
▁enough	-12051
▁expand	-12052
▁itself	-12053
▁myself	-12054
▁myster	-12055
▁number	-12056
▁second	-12057
▁shàonǚ	-12058
▁social	-12059
▁solves	-12060
▁stolen	-12061
▁struct	-12062
▁window	-12063
▁wonder	-12064
▁うわああああ	-12065
いまのいままで	-12066
からこうなった	-12067
くっついてくる	-12068
くてたまらない	-12069
くなってしまう	-12070
こういうことを	-12071
ことがなかった	-12072
ことがほとんど	-12073
このようにして	-12074
しまくっている	-12075
するかのような	-12076
そういうことを	-12077
それって貴方の	-12078
それを裏付ける	-12079
ただそれだけで	-12080
ということです	-12081
といわれている	-12082
とおもっていた	-12083
とおもわないか	-12084
どうすればいい	-12085
どっちかつうと	-12086
なくなるだろう	-12087
なぜならそれは	-12088
ならいくらでも	-12089
なんでそんなに	-12090
に繋がっている	-12091
ばっかりだった	-12092
もなんともない	-12093
わからなくなる	-12094
テキストデータ	-12095
ネコお姉さんは	-12096
プログラミング	-12097
マイナーコード	-12098
中世ヨーロッパ	-12099
何が起きている	-12100
副交感神経優位	-12101
好きな人に夢中	-12102
次の数値を代入	-12103
死んでしまった	-12104
気づかなかった	-12105
自分にとっては	-12106
閉じ込められる	-12107
adjusted	-12108
filename	-12109
msedgntp	-12110
▁Because	-12111
▁complex	-12112
▁current	-12113
▁develop	-12114
▁example	-12115
▁general	-12116
▁individ	-12117
▁process	-12118
▁貴方に会いたい	-12119
ことができません	-12120
ということだった	-12121
となっております	-12122
アイデンティティ	-12123
クラシック理論を	-12124
シチュエーション	-12125
前で馬鹿馬鹿しい	-12126
彦左衛門っていう	-12127
提案していただけ	-12128
神の代わりを創造	-12129
風の谷のナウシカ	-12130
!!!!!!!!!	-12131
▁anything	-12132
▁complete	-12133
▁enhances	-12134
▁language	-12135
▁outsider	-12136
▁princess	-12137
▁thoughts	-12138
でなければならない	-12139
といわざるをえない	-12140
のことを指している	-12141
ほとんど資料なしで	-12142
メフィストフェレス	-12143
嫌われたくない欲求	-12144
示して頂けませんか	-12145
自分の殻に閉じこも	-12146
ynthesizer	-12147
▁attribute	-12148
▁influence	-12149
▁preceding	-12150
▁whispered	-12151
であることがおすすめ	-12152
にそれぞれ数値を代入	-12153
をしなければならない	-12154
描きたい舞台の背景を	-12155
千里眼を獲得するために	-12156
????????????	-12157
▁information	-12158
ええええええええええええ	-12159
ーーーーーーーーーーーー	-12160
前で馬鹿馬鹿しいふんどし	-12161
▁Christianity	-12162
それって貴方の感想ですよね	-12163
!!!!!!!!!!!!!!	-12164
にどのような影響を与えますか	-12165
描きたい舞台の背景を緻密に推論	-12166
!'	-12167
(?	-12168
)5	-12169
)”	-12170
,」	-12171
.'	-12172
/2	-12173
1/	-12174
99	-12175
=(	-12176
AG	-12177
AT	-12178
Do	-12179
EA	-12180
Ex	-12181
HE	-12182
He	-12183
IG	-12184
KI	-12185
KO	-12186
MI	-12187
SV	-12188
YN	-12189
ai	-12190
ew	-12191
fl	-12192
io	-12193
ix	-12194
oi	-12195
pl	-12196
pr	-12197
yr	-12198
▁Z	-12199
▁○	-12200
▁じ	-12201
▁っ	-12202
▁ど	-12203
▁ひ	-12204
▁れ	-12205
▁を	-12206
▁ヒ	-12207
▁各	-12208
▁四	-12209
▁後	-12210
▁日	-12211
▁죽	-12212
。2	-12213
。4	-12214
」=	-12215
あい	-12216
うず	-12217
おに	-12218
かが	-12219
があ	-12220
がき	-12221
がつ	-12222
が広	-12223
が解	-12224
きり	-12225
くび	-12226
けけ	-12227
げさ	-12228
げて	-12229
こぼ	-12230
こら	-12231
さび	-12232
ざた	-12233
しと	-12234
じょ	-12235
じり	-12236
じろ	-12237
すば	-12238
だで	-12239
ちで	-12240
っさ	-12241
っべ	-12242
つと	-12243
でて	-12244
で焼	-12245
とっ	-12246
とま	-12247
とを	-12248
と対	-12249
と悟	-12250
と戦	-12251
と無	-12252
な顔	-12253
にこ	-12254
に代	-12255
に包	-12256
に受	-12257
に富	-12258
に嵌	-12259
に溺	-12260
に縋	-12261
のび	-12262
のマ	-12263
の曲	-12264
の源	-12265
の鏡	-12266
の骨	-12267
は見	-12268
ひひ	-12269
びき	-12270
ふし	-12271
ふる	-12272
ふわ	-12273
べる	-12274
ほい	-12275
みで	-12276
も出	-12277
も見	-12278
やけ	-12279
やみ	-12280
やむ	-12281
やや	-12282
りは	-12283
るさ	-12284
わし	-12285
をお	-12286
を手	-12287
を減	-12288
を漁	-12289
を着	-12290
を結	-12291
を聞	-12292
を被	-12293
を踏	-12294
を退	-12295
ァァ	-12296
イイ	-12297
イデ	-12298
イミ	-12299
ウォ	-12300
エス	-12301
オエ	-12302
オッ	-12303
オマ	-12304
オル	-12305
ガリ	-12306
ガー	-12307
ギュ	-12308
ギリ	-12309
グッ	-12310
ケツ	-12311
ゲス	-12312
コジ	-12313
コメ	-12314
ゴッ	-12315
サタ	-12316
セミ	-12317
ゾロ	-12318
タゴ	-12319
タナ	-12320
ッキ	-12321
ツン	-12322
ツー	-12323
トス	-12324
トレ	-12325
ニス	-12326
ハエ	-12327
バリ	-12328
パソ	-12329
ビビ	-12330
ペン	-12331
ホラ	-12332
マジ	-12333
マリ	-12334
メリ	-12335
モギ	-12336
ラで	-12337
リオ	-12338
リフ	-12339
ワン	-12340
ンヌ	-12341
ヴィ	-12342
ーイ	-12343
一匹	-12344
一意	-12345
丁寧	-12346
上が	-12347
下痢	-12348
世間	-12349
中学	-12350
中道	-12351
中高	-12352
久石	-12353
予防	-12354
事例	-12355
五郎	-12356
人員	-12357
人工	-12358
人手	-12359
今頃	-12360
介入	-12361
付加	-12362
代理	-12363
代謝	-12364
仮に	-12365
休む	-12366
低く	-12367
住処	-12368
体制	-12369
何ら	-12370
何年	-12371
余計	-12372
作風	-12373
便利	-12374
便所	-12375
保守	-12376
個の	-12377
倍に	-12378
倒す	-12379
側は	-12380
偽装	-12381
傀儡	-12382
儚い	-12383
優等	-12384
兄の	-12385
光線	-12386
共鳴	-12387
其の	-12388
内臓	-12389
再び	-12390
冗談	-12391
凝り	-12392
凝視	-12393
刃物	-12394
判る	-12395
別れ	-12396
利他	-12397
劇団	-12398
力も	-12399
助け	-12400
助詞	-12401
効率	-12402
動悸	-12403
動機	-12404
勿体	-12405
化を	-12406
匿名	-12407
半身	-12408
単独	-12409
博士	-12410
反逆	-12411
叔父	-12412
受容	-12413
口に	-12414
召喚	-12415
可換	-12416
可視	-12417
同居	-12418
名が	-12419
名は	-12420
含む	-12421
告げ	-12422
告白	-12423
周回	-12424
周期	-12425
呵責	-12426
呼吸	-12427
商売	-12428
商法	-12429
啓示	-12430
善説	-12431
喚き	-12432
喜悦	-12433
喰う	-12434
営業	-12435
嘆く	-12436
在庫	-12437
型の	-12438
場に	-12439
声優	-12440
夢を	-12441
大勢	-12442
大戦	-12443
大正	-12444
天照	-12445
夫婦	-12446
奴の	-12447
好物	-12448
妙に	-12449
娘は	-12450
字幕	-12451
存じ	-12452
季節	-12453
学び	-12454
守れ	-12455
定理	-12456
実な	-12457
実話	-12458
家政	-12459
家族	-12460
宿題	-12461
寛容	-12462
年の	-12463
幽霊	-12464
度に	-12465
座を	-12466
延長	-12467
式の	-12468
引退	-12469
弱弱	-12470
弱点	-12471
強大	-12472
当初	-12473
当該	-12474
彼ら	-12475
後天	-12476
志望	-12477
忠誠	-12478
怠い	-12479
悩み	-12480
悪を	-12481
悪質	-12482
情動	-12483
情緒	-12484
惹き	-12485
意を	-12486
意思	-12487
愛が	-12488
感の	-12489
慣性	-12490
憎い	-12491
憎む	-12492
憤怒	-12493
我的	-12494
所が	-12495
手動	-12496
批評	-12497
抑え	-12498
挙句	-12499
挨拶	-12500
捗る	-12501
探り	-12502
推定	-12503
推移	-12504
掻き	-12505
提唱	-12506
揺ら	-12507
擬態	-12508
攪乱	-12509
故郷	-12510
救い	-12511
救済	-12512
教の	-12513
数々	-12514
数と	-12515
文節	-12516
断念	-12517
断絶	-12518
断罪	-12519
新星	-12520
新聞	-12521
方も	-12522
星空	-12523
時男	-12524
暴食	-12525
曲線	-12526
書に	-12527
最小	-12528
月が	-12529
有り	-12530
望都	-12531
本の	-12532
本能	-12533
本領	-12534
松田	-12535
格言	-12536
棄て	-12537
検討	-12538
業務	-12539
極端	-12540
楽譜	-12541
概要	-12542
様が	-12543
模写	-12544
模範	-12545
権を	-12546
権限	-12547
横た	-12548
次々	-12549
歓迎	-12550
歩く	-12551
死神	-12552
母が	-12553
母と	-12554
母竜	-12555
毎夜	-12556
気は	-12557
永久	-12558
氾濫	-12559
池沼	-12560
汲み	-12561
沙汰	-12562
流す	-12563
流産	-12564
浮彫	-12565
消せ	-12566
深刻	-12567
添え	-12568
温室	-12569
準備	-12570
溢れ	-12571
潜在	-12572
烏滸	-12573
無断	-12574
無知	-12575
熱い	-12576
熱狂	-12577
牢獄	-12578
特の	-12579
犬が	-12580
王と	-12581
理に	-12582
理の	-12583
生で	-12584
生み	-12585
生態	-12586
用に	-12587
田舎	-12588
異性	-12589
異音	-12590
疲れ	-12591
病み	-12592
病む	-12593
痙攣	-12594
白人	-12595
的だ	-12596
目も	-12597
目立	-12598
目障	-12599
真偽	-12600
真心	-12601
眠く	-12602
矛先	-12603
碍に	-12604
確保	-12605
礼儀	-12606
神父	-12607
禁中	-12608
科医	-12609
窒息	-12610
等の	-12611
範疇	-12612
築く	-12613
簡易	-12614
素敵	-12615
経路	-12616
絡み	-12617
継続	-12618
総称	-12619
編集	-12620
緩衝	-12621
美女	-12622
羨ま	-12623
聖書	-12624
脱却	-12625
腐り	-12626
自宅	-12627
自演	-12628
荒廃	-12629
蒼白	-12630
薄い	-12631
蘊蓄	-12632
虚構	-12633
虫は	-12634
血が	-12635
表示	-12636
見よ	-12637
見解	-12638
規制	-12639
規模	-12640
解る	-12641
解説	-12642
訪れ	-12643
試み	-12644
誇示	-12645
誘発	-12646
誰を	-12647
豊か	-12648
販売	-12649
貰う	-12650
貶め	-12651
買い	-12652
賞賛	-12653
起床	-12654
超越	-12655
車が	-12656
車の	-12657
転調	-12658
迦陵	-12659
迷惑	-12660
追う	-12661
追跡	-12662
退け	-12663
退散	-12664
逆ら	-12665
途中	-12666
通す	-12667
連の	-12668
連呼	-12669
過激	-12670
都度	-12671
野望	-12672
量産	-12673
金は	-12674
金田	-12675
釣り	-12676
鋭い	-12677
長さ	-12678
開示	-12679
間で	-12680
降参	-12681
階段	-12682
隠れ	-12683
隠滅	-12684
電気	-12685
面で	-12686
頂く	-12687
頻伽	-12688
顔に	-12689
顧み	-12690
風情	-12691
風流	-12692
風船	-12693
飢餓	-12694
飼い	-12695
騒音	-12696
鬼畜	-12697
鹿島	-12698
黄泉	-12699
～1	-12700
#':	-12701
(8-	-12702
-':	-12703
10/	-12704
132	-12705
36,	-12706
4,4	-12707
7%8	-12708
?!)	-12709
IDI	-12710
POP	-12711
SEC	-12712
^^;	-12713
air	-12714
ane	-12715
bed	-12716
bpm	-12717
cle	-12718
dub	-12719
eri	-12720
ese	-12721
eve	-12722
for	-12723
ges	-12724
iny	-12725
iot	-12726
irl	-12727
lic	-12728
lif	-12729
mes	-12730
mic	-12731
ner	-12732
net	-12733
ony	-12734
urs	-12735
use	-12736
yos	-12737
▁!=	-12738
▁'{	-12739
▁((	-12740
▁15	-12741
▁3・	-12742
▁5.	-12743
▁8、	-12744
▁At	-12745
▁Ex	-12746
▁NO	-12747
▁OK	-12748
▁Su	-12749
▁['	-12750
▁fi	-12751
▁jo	-12752
▁us	-12753
▁おい	-12754
▁おじ	-12755
▁こう	-12756
▁そら	-12757
▁など	-12758
▁ハゲ	-12759
▁何か	-12760
▁優香	-12761
▁君が	-12762
▁君は	-12763
▁君を	-12764
▁問題	-12765
▁回線	-12766
▁失う	-12767
▁女が	-12768
▁彼女	-12769
▁条件	-12770
▁特に	-12771
▁狭い	-12772
▁理由	-12773
▁疑問	-12774
▁私達	-12775
▁第二	-12776
▁訂正	-12777
▁鶴坂	-12778
あの世	-12779
あまい	-12780
ありき	-12781
ありさ	-12782
ありゃ	-12783
あるか	-12784
あんの	-12785
いおう	-12786
いくと	-12787
いては	-12788
いるか	-12789
ええか	-12790
えきれ	-12791
おかず	-12792
おかつ	-12793
おけよ	-12794
おっと	-12795
おまけ	-12796
おめえ	-12797
お待ち	-12798
お風呂	-12799
かかる	-12800
かなか	-12801
かもな	-12802
かもね	-12803
かもを	-12804
かわり	-12805
がつく	-12806
が一致	-12807
が優位	-12808
が投影	-12809
が流行	-12810
が湧く	-12811
が違う	-12812
きいて	-12813
きって	-12814
きもい	-12815
くくく	-12816
くしゃ	-12817
くても	-12818
くのは	-12819
こうか	-12820
ここら	-12821
この二	-12822
この山	-12823
この里	-12824
さえて	-12825
させろ	-12826
されず	-12827
しえる	-12828
しさを	-12829
したか	-12830
してい	-12831
してよ	-12832
しまえ	-12833
じみた	-12834
すこと	-12835
する術	-12836
せねば	-12837
せよう	-12838
その姿	-12839
その日	-12840
だがね	-12841
だけか	-12842
だっけ	-12843
だと思	-12844
だねえ	-12845
だめよ	-12846
ちんぽ	-12847
っこい	-12848
っとも	-12849
っぱら	-12850
つかる	-12851
づける	-12852
であれ	-12853
でござ	-12854
でその	-12855
でよい	-12856
ときた	-12857
とはな	-12858
とるね	-12859
と呼ぶ	-12860
と呼称	-12861
と矛盾	-12862
と結び	-12863
どうや	-12864
どもの	-12865
なあに	-12866
なかば	-12867
なせる	-12868
なみの	-12869
なわけ	-12870
なんす	-12871
な人間	-12872
な部分	-12873
にじり	-12874
になお	-12875
にゃん	-12876
に変更	-12877
に従う	-12878
に応募	-12879
に打ち	-12880
に留ま	-12881
に立ち	-12882
に違い	-12883
に類似	-12884
のため	-12885
のも手	-12886
のやる	-12887
のやろ	-12888
のウラ	-12889
のエロ	-12890
のフリ	-12891
の一部	-12892
の余地	-12893
の価値	-12894
の元栓	-12895
の割合	-12896
の原理	-12897
の声が	-12898
の女に	-12899
の姿で	-12900
の時は	-12901
の破壊	-12902
の絵の	-12903
の表現	-12904
の違い	-12905
の限界	-12906
の音が	-12907
の顔だ	-12908
はこう	-12909
はずさ	-12910
は不要	-12911
ぽっき	-12912
まえに	-12913
まこと	-12914
まとめ	-12915
みえん	-12916
やけど	-12917
やっべ	-12918
やつに	-12919
ょそこ	-12920
られず	-12921
らんと	-12922
るだけ	-12923
る理由	-12924
わりい	-12925
をかも	-12926
をその	-12927
をただ	-12928
をとり	-12929
を伴う	-12930
を使い	-12931
を呈し	-12932
を呼び	-12933
を宣言	-12934
を待ち	-12935
を抜き	-12936
を持て	-12937
を特定	-12938
を発展	-12939
を発見	-12940
を羅列	-12941
を見ろ	-12942
を見下	-12943
んかな	-12944
んかね	-12945
んだぜ	-12946
んだの	-12947
んなら	-12948
んねー	-12949
んのが	-12950
アナル	-12951
アレは	-12952
アンケ	-12953
イミフ	-12954
エルデ	-12955
オジン	-12956
オット	-12957
カッコ	-12958
カメラ	-12959
カリカ	-12960
キスを	-12961
グノー	-12962
ケーキ	-12963
ゴミが	-12964
サンの	-12965
サンチ	-12966
サンド	-12967
シズム	-12968
シティ	-12969
シルラ	-12970
ジブリ	-12971
ソッチ	-12972
タスク	-12973
チャク	-12974
チャー	-12975
チーム	-12976
ッキー	-12977
ックな	-12978
ッタノ	-12979
ッター	-12980
ディオ	-12981
トップ	-12982
ドビュ	-12983
ナッツ	-12984
ニガヨ	-12985
ニンフ	-12986
ネタを	-12987
パトリ	-12988
ビート	-12989
ビーバ	-12990
ピュタ	-12991
ファッ	-12992
フォン	-12993
ベイズ	-12994
ベジェ	-12995
ボロシ	-12996
マサ子	-12997
ミミズ	-12998
ミルク	-12999
メモリ	-13000
モチベ	-13001
ユーク	-13002
ラップ	-13003
ランド	-13004
リッド	-13005
リティ	-13006
ルート	-13007
レーザ	-13008
ロイド	-13009
ロシア	-13010
ーンの	-13011
一人は	-13012
一人称	-13013
一日中	-13014
一時間	-13015
一部の	-13016
万が一	-13017
上から	-13018
上での	-13019
不動の	-13020
不十分	-13021
不可欠	-13022
不審な	-13023
不快が	-13024
不気味	-13025
事実だ	-13026
事象に	-13027
京介と	-13028
人いる	-13029
人とは	-13030
人ほど	-13031
人物が	-13032
人間性	-13033
人間的	-13034
今なら	-13035
仕組み	-13036
他者の	-13037
以下に	-13038
以外で	-13039
以外を	-13040
仮定し	-13041
会った	-13042
体中に	-13043
何人の	-13044
作られ	-13045
作品が	-13046
作品に	-13047
依存と	-13048
価値の	-13049
俺には	-13050
俺の嫁	-13051
俺らは	-13052
借りて	-13053
傲慢な	-13054
元気が	-13055
元気に	-13056
入れた	-13057
入れろ	-13058
全人類	-13059
全員に	-13060
冷たい	-13061
出会う	-13062
刻印の	-13063
力すら	-13064
動名詞	-13065
動物の	-13066
勝って	-13067
北朝鮮	-13068
匿名の	-13069
単語を	-13070
占めて	-13071
即興で	-13072
受け取	-13073
可能か	-13074
右脳が	-13075
叶える	-13076
合いに	-13077
同じく	-13078
吐き気	-13079
向かい	-13080
周囲の	-13081
周波数	-13082
呼んだ	-13083
咎める	-13084
哀れな	-13085
問いに	-13086
問わず	-13087
喉から	-13088
喜んで	-13089
回った	-13090
回転し	-13091
地位も	-13092
大幅に	-13093
天才の	-13094
天才児	-13095
太陽が	-13096
奏でる	-13097
女の姿	-13098
女性と	-13099
奴らの	-13100
好きか	-13101
妬みは	-13102
妬みを	-13103
妬む神	-13104
委ねて	-13105
嬉しく	-13106
存在の	-13107
学者の	-13108
宇宙を	-13109
宗教の	-13110
実際に	-13111
家政婦	-13112
対象を	-13113
幼児が	-13114
建物の	-13115
引いた	-13116
引き出	-13117
強いて	-13118
当ては	-13119
彼らは	-13120
彼女に	-13121
彼等が	-13122
従って	-13123
得意技	-13124
得点を	-13125
忌まわ	-13126
思想を	-13127
思考は	-13128
性善説	-13129
性欲を	-13130
恋人の	-13131
息子の	-13132
患者が	-13133
悪い癖	-13134
悪意の	-13135
意識を	-13136
愛した	-13137
愛でる	-13138
感情が	-13139
態度を	-13140
成った	-13141
戻って	-13142
手のひ	-13143
手立て	-13144
折り重	-13145
抱いて	-13146
挙げて	-13147
揃いも	-13148
描けた	-13149
損なう	-13150
操って	-13151
攻撃を	-13152
放って	-13153
数える	-13154
新たに	-13155
新尺度	-13156
方法で	-13157
日本は	-13158
映像で	-13159
昨日も	-13160
時代は	-13161
時以外	-13162
普通の	-13163
普遍的	-13164
暴れる	-13165
書き換	-13166
書物を	-13167
最初は	-13168
最期の	-13169
服従的	-13170
本来の	-13171
果てる	-13172
栄えた	-13173
株投資	-13174
根底に	-13175
概念の	-13176
構って	-13177
次には	-13178
欲しく	-13179
正当な	-13180
正確に	-13181
母親が	-13182
気分さ	-13183
気力が	-13184
法則を	-13185
泣いた	-13186
洗脳術	-13187
活動を	-13188
浮かば	-13189
消し去	-13190
満たす	-13191
満ち溢	-13192
溺れて	-13193
漫画家	-13194
無理だ	-13195
燃え盛	-13196
物語に	-13197
物語は	-13198
犯した	-13199
犯人が	-13200
状態で	-13201
独特の	-13202
猫さん	-13203
理解を	-13204
理論の	-13205
生意気	-13206
用いる	-13207
男って	-13208
画像が	-13209
画像に	-13210
番目の	-13211
病気を	-13212
痩せる	-13213
的にな	-13214
的表現	-13215
盗み見	-13216
盗んで	-13217
盗聴と	-13218
盲目の	-13219
直前の	-13220
真理を	-13221
着いた	-13222
知識の	-13223
神話の	-13224
私達を	-13225
科学的	-13226
秘めて	-13227
稚拙な	-13228
種類の	-13229
突き放	-13230
端を発	-13231
第一位	-13232
精神の	-13233
精神は	-13234
紅十字	-13235
罪深い	-13236
義父が	-13237
耳元で	-13238
肉体に	-13239
能力は	-13240
脳細胞	-13241
腑抜け	-13242
自己顕	-13243
自身は	-13244
英語に	-13245
葉っぱ	-13246
虐めて	-13247
虚しい	-13248
要素が	-13249
要素の	-13250
見ると	-13251
観客の	-13252
触手を	-13253
言い分	-13254
言い聞	-13255
言葉だ	-13256
言説を	-13257
評価を	-13258
詳細な	-13259
詳細に	-13260
認めた	-13261
誤った	-13262
誰とも	-13263
論理積	-13264
諦めて	-13265
貴女の	-13266
超新星	-13267
足らな	-13268
足らん	-13269
足りて	-13270
距離を	-13271
身にも	-13272
身の回	-13273
転じて	-13274
載せる	-13275
込めて	-13276
込もう	-13277
退ける	-13278
途端に	-13279
進んだ	-13280
運んだ	-13281
運んで	-13282
過度な	-13283
違うよ	-13284
適当に	-13285
選択肢	-13286
重ねる	-13287
長年の	-13288
間にも	-13289
関係が	-13290
関心を	-13291
限らず	-13292
離れて	-13293
静かに	-13294
頭の中	-13295
頭よく	-13296
頭悪い	-13297
願いは	-13298
飛び散	-13299
飛んで	-13300
飢えて	-13301
高まる	-13302
高等な	-13303
～^^	-13304
～♥」	-13305
)))=	-13306
))÷2	-13307
+(8-	-13308
2015	-13309
=44,	-13310
??!!	-13311
AAAA	-13312
ENDO	-13313
[1])	-13314
aily	-13315
akes	-13316
alth	-13317
avor	-13318
bind	-13319
bitr	-13320
cing	-13321
edia	-13322
eger	-13323
esth	-13324
fect	-13325
fess	-13326
from	-13327
ides	-13328
iled	-13329
ines	-13330
iron	-13331
lose	-13332
note	-13333
ocus	-13334
omet	-13335
oney	-13336
ored	-13337
pret	-13338
push	-13339
ract	-13340
rely	-13341
rown	-13342
shap	-13343
usic	-13344
vels	-13345
ware	-13346
xual	-13347
ynam	-13348
————	-13349
▁(((	-13350
▁She	-13351
▁Wes	-13352
▁add	-13353
▁adv	-13354
▁due	-13355
▁fin	-13356
▁kid	-13357
▁lar	-13358
▁low	-13359
▁mag	-13360
▁met	-13361
▁mon	-13362
▁net	-13363
▁sad	-13364
▁sci	-13365
▁set	-13366
▁sub	-13367
▁top	-13368
▁val	-13369
▁wav	-13370
▁あまり	-13371
▁ある時	-13372
▁すべて	-13373
▁人間の	-13374
▁以下の	-13375
▁何かが	-13376
▁僕には	-13377
▁左大臣	-13378
▁相手が	-13379
▁自分に	-13380
▁追及者	-13381
あくまで	-13382
あたりに	-13383
あながち	-13384
あるだろ	-13385
あるのか	-13386
あるまい	-13387
ある種の	-13388
いいのに	-13389
いじめる	-13390
いっきに	-13391
いまいち	-13392
いやでも	-13393
いやまて	-13394
いるいる	-13395
うすうす	-13396
おまえら	-13397
おまんこ	-13398
おもうよ	-13399
おもちゃ	-13400
からその	-13401
からだよ	-13402
からだろ	-13403
からなあ	-13404
からやる	-13405
から何か	-13406
から目を	-13407
かんがえ	-13408
かんでも	-13409
があるし	-13410
がための	-13411
が手に入	-13412
が現れた	-13413
が自分の	-13414
くさくて	-13415
くっつけ	-13416
くやしい	-13417
ぐるぐる	-13418
こいつは	-13419
こっちを	-13420
こととは	-13421
ことない	-13422
ことの証	-13423
この世の	-13424
この女は	-13425
この期に	-13426
これでは	-13427
ごはんを	-13428
さいきん	-13429
させると	-13430
さながら	-13431
しすぎる	-13432
したがる	-13433
したのさ	-13434
してたら	-13435
しらない	-13436
しらんが	-13437
するとか	-13438
する瞬間	-13439
せられる	-13440
そのうえ	-13441
その中身	-13442
その人の	-13443
それが何	-13444
それほど	-13445
それらの	-13446
それ以上	-13447
それ自体	-13448
ただちに	-13449
たったか	-13450
ためだけ	-13451
ためにも	-13452
たんです	-13453
だが女が	-13454
だけの話	-13455
だろうし	-13456
だろこれ	-13457
ちいさい	-13458
ちゃんで	-13459
っくり返	-13460
ったのに	-13461
っつうと	-13462
ってんの	-13463
つかって	-13464
つもりだ	-13465
ていない	-13466
でしたね	-13467
ですって	-13468
ですべて	-13469
でもした	-13470
でもそう	-13471
で割った	-13472
で始まり	-13473
という事	-13474
といわれ	-13475
とおもい	-13476
とは関係	-13477
ともいう	-13478
とれない	-13479
と同一視	-13480
と知った	-13481
と見做す	-13482
と認める	-13483
どんだけ	-13484
ないだろ	-13485
ないのか	-13486
ないのだ	-13487
なおかつ	-13488
なかなか	-13489
なぜその	-13490
なという	-13491
なにかに	-13492
なにがい	-13493
なにこれ	-13494
なのかね	-13495
ならその	-13496
ならまだ	-13497
なわけだ	-13498
なんだか	-13499
にあった	-13500
にしてや	-13501
にできる	-13502
になるか	-13503
にはその	-13504
に至らし	-13505
に行って	-13506
に過ぎず	-13507
ねえよな	-13508
のうちに	-13509
のが人間	-13510
のことに	-13511
のだった	-13512
のですね	-13513
のは真だ	-13514
のみんな	-13515
のものを	-13516
の世界を	-13517
の数々を	-13518
の概念は	-13519
の漫画を	-13520
の激しい	-13521
の裏返し	-13522
の誕生日	-13523
はもっと	-13524
は本当に	-13525
ひとえに	-13526
びらかす	-13527
ふつうに	-13528
ふりして	-13529
ぶりつく	-13530
ますかね	-13531
ませんね	-13532
まちがい	-13533
みたいね	-13534
みるのは	-13535
みんなが	-13536
みんなの	-13537
められて	-13538
もあった	-13539
もなしに	-13540
ものだし	-13541
もらって	-13542
やばいな	-13543
やりてえ	-13544
やるのは	-13545
やるべき	-13546
ゆんゆん	-13547
ようだな	-13548
ようによ	-13549
よろしい	-13550
らっしゃ	-13551
りんごは	-13552
ることを	-13553
るだろう	-13554
れるんだ	-13555
をさらに	-13556
を作ると	-13557
を信じる	-13558
を出ない	-13559
を加えた	-13560
を愛する	-13561
を感じた	-13562
を抱いて	-13563
を描いた	-13564
を有する	-13565
を見せて	-13566
を見れる	-13567
を読んで	-13568
を重ねる	-13569
を開けて	-13570
んじゃん	-13571
んだなあ	-13572
んでもら	-13573
アピール	-13574
イエスが	-13575
カルタゴ	-13576
カワイソ	-13577
ガタ落ち	-13578
ガチギレ	-13579
キャスト	-13580
キャッチ	-13581
キャンペ	-13582
キルリア	-13583
クロノス	-13584
サイトで	-13585
サクラの	-13586
サタンの	-13587
シナリオ	-13588
ショート	-13589
シンプル	-13590
ジュリエ	-13591
タナトス	-13592
チェック	-13593
テレビで	-13594
ディスト	-13595
デザイン	-13596
データ軍	-13597
トランプ	-13598
トリック	-13599
ドキドキ	-13600
ナンカの	-13601
ネットが	-13602
ネットは	-13603
ハンバー	-13604
ハーレム	-13605
パソコン	-13606
フォルマ	-13607
フォーム	-13608
フロイト	-13609
ベラベラ	-13610
マイクロ	-13611
メリット	-13612
モゴモゴ	-13613
モノの見	-13614
ユダヤ人	-13615
ユングが	-13616
ラピュタ	-13617
ルサンチ	-13618
ルールを	-13619
レクトリ	-13620
レーザー	-13621
ローマ帝	-13622
ワタシも	-13623
ンなって	-13624
ヴァージ	-13625
上がって	-13626
不快不快	-13627
世の中は	-13628
中高年を	-13629
主人公の	-13630
二人とも	-13631
人が多い	-13632
人間的な	-13633
今現在の	-13634
付け足す	-13635
仮定した	-13636
仮定して	-13637
体である	-13638
何らかの	-13639
作り上げ	-13640
使われて	-13641
価値ある	-13642
信じたい	-13643
偉そうな	-13644
側だった	-13645
側の人間	-13646
入ってる	-13647
分析する	-13648
判明した	-13649
副長の姿	-13650
力点が置	-13651
勝ちたい	-13652
勝利した	-13653
取られて	-13654
取りざた	-13655
受け取り	-13656
可換演算	-13657
吐き気が	-13658
吐き気を	-13659
問いかけ	-13660
嘲られる	-13661
回くらい	-13662
執着的に	-13663
基本的な	-13664
報われる	-13665
塗りつぶ	-13666
壊された	-13667
変わった	-13668
夢を見る	-13669
大自然の	-13670
大間違い	-13671
女がいる	-13672
好かれた	-13673
好きだよ	-13674
好き嫌い	-13675
嫉妬に狂	-13676
嫉妬をし	-13677
嫉妬心が	-13678
宗教観念	-13679
客観的に	-13680
密度関数	-13681
少しでも	-13682
少女歌劇	-13683
左右対称	-13684
差がある	-13685
弱いやつ	-13686
弱弱しい	-13687
彼女らは	-13688
後に続く	-13689
後ろから	-13690
心理的に	-13691
忌むべき	-13692
忘れられ	-13693
忘れ去る	-13694
忘却する	-13695
思い出せ	-13696
思っても	-13697
性がある	-13698
悪くない	-13699
悪くなる	-13700
惚れてる	-13701
意味する	-13702
愛してや	-13703
感じます	-13704
懐かしい	-13705
成り立た	-13706
成功した	-13707
戻らない	-13708
持ち物を	-13709
振る舞い	-13710
探してる	-13711
描くのは	-13712
敗北する	-13713
敵対者が	-13714
文章から	-13715
文章では	-13716
日に日に	-13717
明日から	-13718
時の顔が	-13719
最初から	-13720
望ましい	-13721
本当の話	-13722
構成する	-13723
欲しくて	-13724
死んだら	-13725
気がした	-13726
気を付け	-13727
消え去る	-13728
消せない	-13729
深い洞察	-13730
無理やり	-13731
物理的な	-13732
犯される	-13733
現在位置	-13734
理不尽な	-13735
生きがい	-13736
男がいる	-13737
男として	-13738
男の人に	-13739
発された	-13740
発生した	-13741
目に遭う	-13742
知らずに	-13743
私がその	-13744
私たちの	-13745
私たちは	-13746
私は貴方	-13747
私を見て	-13748
私用スク	-13749
積み上げ	-13750
積極的に	-13751
立ち現れ	-13752
精神年齢	-13753
純粋なる	-13754
紡がれた	-13755
組み立て	-13756
結婚する	-13757
絵が下手	-13758
絶対座標	-13759
続かない	-13760
続けると	-13761
美少女が	-13762
美少女を	-13763
羨ましい	-13764
考えると	-13765
耐え難い	-13766
聞いてる	-13767
肉体的な	-13768
肯定する	-13769
能力すら	-13770
自作自演	-13771
自分だけ	-13772
自殺した	-13773
萩尾望都	-13774
虫のいい	-13775
行き着く	-13776
見てない	-13777
観測者は	-13778
説得力を	-13779
調べたら	-13780
赤い風船	-13781
込ませる	-13782
込まれた	-13783
込まれる	-13784
近づいて	-13785
迦陵頻伽	-13786
選ばれる	-13787
錬金術師	-13788
間違いだ	-13789
隠された	-13790
雪の女王	-13791
音楽を創	-13792
顔面蒼白	-13793
食べたい	-13794
魔法陣の	-13795
!!!!」	-13796
)・・・(	-13797
=1/18	-13798
=1/24	-13799
?!!?!	-13800
KENDO	-13801
antum	-13802
avior	-13803
basic	-13804
ciple	-13805
https	-13806
parts	-13807
ratio	-13808
ution	-13809
uture	-13810
▁1000	-13811
▁7:11	-13812
▁7:13	-13813
▁7:35	-13814
▁7:50	-13815
▁7:55	-13816
▁8:16	-13817
▁LOVE	-13818
▁also	-13819
▁cost	-13820
▁deep	-13821
▁didn	-13822
▁draw	-13823
▁expl	-13824
▁fost	-13825
▁hall	-13826
▁hold	-13827
▁home	-13828
▁idea	-13829
▁item	-13830
▁lose	-13831
▁made	-13832
▁move	-13833
▁phen	-13834
▁port	-13835
▁prod	-13836
▁resp	-13837
▁scre	-13838
▁sure	-13839
▁trou	-13840
▁vers	-13841
▁went	-13842
▁おかしい	-13843
▁お母さん	-13844
▁そこには	-13845
▁その瞬間	-13846
▁そもそも	-13847
▁たしかに	-13848
▁ちなみに	-13849
▁ワタクシ	-13850
▁・・・!	-13851
▁恐ろしい	-13852
、1000	-13853
あなたがた	-13854
あるじゃん	-13855
いいきかせ	-13856
いいぢゃん	-13857
いいのにな	-13858
いいんだろ	-13859
いい人ぶる	-13860
いたくなる	-13861
いましがた	-13862
おとなしく	-13863
かっこしい	-13864
かっていう	-13865
かもしれん	-13866
から生じる	-13867
があるもの	-13868
がいらない	-13869
がそもそも	-13870
がついてる	-13871
がどうたら	-13872
がまったく	-13873
がれている	-13874
が始まった	-13875
くらいには	-13876
くれるんだ	-13877
けのこの里	-13878
こいつらは	-13879
こういうの	-13880
こうやって	-13881
ここ最近で	-13882
ことが多く	-13883
ことだけは	-13884
このキャラ	-13885
この上なく	-13886
この世でも	-13887
この事実を	-13888
この言葉を	-13889
さえあれば	-13890
させてくれ	-13891
さっきから	-13892
されたから	-13893
された場合	-13894
されていく	-13895
されてない	-13896
しかし私は	-13897
しかもその	-13898
したあげく	-13899
したものだ	-13900
したんだろ	-13901
していたが	-13902
しておいて	-13903
してみよう	-13904
しなくても	-13905
すごくよく	-13906
するんだろ	-13907
する行為が	-13908
ずんだもん	-13909
そうですね	-13910
そうなって	-13911
そう考える	-13912
その調子で	-13913
それでその	-13914
それはもう	-13915
それ以上の	-13916
それ以前に	-13917
たいと思う	-13918
ただたんに	-13919
だけでいい	-13920
だったりは	-13921
だったわけ	-13922
ちゃんって	-13923
っていたが	-13924
っていたら	-13925
っていても	-13926
ってたんだ	-13927
って思った	-13928
って欲しい	-13929
って知って	-13930
つうんだよ	-13931
つけられた	-13932
であるとは	-13933
である必要	-13934
でないなら	-13935
という印象	-13936
という意志	-13937
という感覚	-13938
という欲求	-13939
という確信	-13940
という逆説	-13941
といわれて	-13942
とおもえば	-13943
と思うんだ	-13944
どうかんが	-13945
どうみても	-13946
なけなしの	-13947
なのですか	-13948
なのですよ	-13949
ならないか	-13950
ならないし	-13951
ならないと	-13952
なんですが	-13953
にとっての	-13954
になっても	-13955
にも等しい	-13956
にわたって	-13957
に留まらず	-13958
のかどうか	-13959
のだろうが	-13960
ふさわしい	-13961
ふしがある	-13962
ほうが良い	-13963
みたいなの	-13964
みましょう	-13965
みんなして	-13966
もうすこし	-13967
もなかった	-13968
ものがない	-13969
ものなんだ	-13970
もらいたい	-13971
やるからな	-13972
ゆえの狂気	-13973
ょそこらの	-13974
られるのか	-13975
りしている	-13976
れなかった	-13977
わたしの神	-13978
われますか	-13979
をするのか	-13980
を仕掛ける	-13981
を作りたい	-13982
を求めます	-13983
んだろうか	-13984
んだろうね	-13985
アンケート	-13986
エルデシュ	-13987
カリカチュ	-13988
グノーシス	-13989
サイコパス	-13990
サキュバス	-13991
スタックに	-13992
トカゲ副長	-13993
トークナイ	-13994
ニガヨモギ	-13995
パイソンで	-13996
パターンの	-13997
ヒステリー	-13998
マスコット	-13999
ミリタリー	-14000
メロディー	-14001
リラックス	-14002
不自然な夢	-14003
与えられて	-14004
中心として	-14005
人に見せる	-14006
今からでも	-14007
仔猫ちゃん	-14008
仮定された	-14009
働きかける	-14010
入り込んで	-14011
全力で否定	-14012
出なかった	-14013
出来ている	-14014
副長のこと	-14015
副長のせい	-14016
動いている	-14017
受け入れた	-14018
問題がある	-14019
喜んでいる	-14020
四方八方に	-14021
因果関係を	-14022
地獄に堕ち	-14023
好きだった	-14024
好きなんだ	-14025
当て嵌まる	-14026
形成された	-14027
形成される	-14028
彦左衛門だ	-14029
必要として	-14030
必要なもの	-14031
忌まわしい	-14032
思い浮かぶ	-14033
思っている	-14034
思考盗聴の	-14035
性格が悪い	-14036
悪くなった	-14037
情報の氾濫	-14038
描いた漫画	-14039
支配された	-14040
日寝ないで	-14041
木村という	-14042
横になると	-14043
欠かせない	-14044
欲しいです	-14045
欲しいんだ	-14046
欲求がある	-14047
正当化する	-14048
歩いている	-14049
気が付いた	-14050
気が付いて	-14051
気に入らん	-14052
気持ちよく	-14053
水道の元栓	-14054
求めている	-14055
溶けていく	-14056
潜んでいる	-14057
物体がある	-14058
物議をかも	-14059
状態である	-14060
理解しない	-14061
生まれつき	-14062
生理的嫌悪	-14063
産物であり	-14064
畳みかける	-14065
症状が出る	-14066
発言をした	-14067
盗聴なのか	-14068
真に受けて	-14069
真理である	-14070
知った上で	-14071
私に対して	-14072
秘められた	-14073
積み上げる	-14074
紅十字病院	-14075
美人になる	-14076
考えていた	-14077
者のことを	-14078
背筋を伸ば	-14079
能力がある	-14080
膨らませる	-14081
自分のほう	-14082
自分の中で	-14083
自分の姿を	-14084
自分の音楽	-14085
興味がある	-14086
英文の文法	-14087
英語の質問	-14088
行っている	-14089
見抜けない	-14090
誘っている	-14091
誰のことも	-14092
超人を創造	-14093
迫ってくる	-14094
間違いなく	-14095
面白くない	-14096
食欲がない	-14097
=1/132	-14098
amount	-14099
aptism	-14100
arming	-14101
ceived	-14102
ential	-14103
ention	-14104
erties	-14105
itting	-14106
mental	-14107
yosuke	-14108
▁12:01	-14109
▁15:22	-14110
▁15:26	-14111
▁15:41	-14112
▁15:45	-14113
▁15:55	-14114
▁16:06	-14115
▁16:46	-14116
▁16:47	-14117
▁17:00	-14118
▁17:01	-14119
▁17:13	-14120
▁17:42	-14121
▁17:47	-14122
▁17:52	-14123
▁17:58	-14124
▁18:00	-14125
▁18:01	-14126
▁18:03	-14127
▁18:19	-14128
▁18:24	-14129
▁18:26	-14130
▁18:28	-14131
▁18:31	-14132
▁18:33	-14133
▁18:43	-14134
▁18:58	-14135
▁19:01	-14136
▁19:10	-14137
▁19:20	-14138
▁19:23	-14139
▁19:34	-14140
▁19:39	-14141
▁19:46	-14142
▁19:55	-14143
▁20:00	-14144
▁20:28	-14145
▁20:32	-14146
▁Every	-14147
▁False	-14148
▁Ratio	-14149
▁Would	-14150
▁adapt	-14151
▁aesth	-14152
▁allow	-14153
▁angry	-14154
▁appro	-14155
▁black	-14156
▁bound	-14157
▁catch	-14158
▁chaos	-14159
▁cheek	-14160
▁clear	-14161
▁close	-14162
▁daily	-14163
▁expos	-14164
▁frame	-14165
▁going	-14166
▁house	-14167
▁idiot	-14168
▁pitch	-14169
▁revis	-14170
▁roots	-14171
▁seems	-14172
▁small	-14173
▁stand	-14174
▁theme	-14175
▁these	-14176
▁under	-14177
▁ありがとう	-14178
▁何時の日か	-14179
ありやしない	-14180
いじめられて	-14181
いわれている	-14182
うわああああ	-14183
お義父さんは	-14184
かのどちらか	-14185
から抜け出す	-14186
かわいそうな	-14187
があまりにも	-14188
がくっついて	-14189
こういうのを	-14190
ことが大好き	-14191
この箇条書き	-14192
これは単なる	-14193
させるために	-14194
されてしまう	-14195
されなかった	-14196
されるような	-14197
していました	-14198
しているだけ	-14199
している時の	-14200
してるでしょ	-14201
しないだろう	-14202
しまっている	-14203
しようとする	-14204
じゃなかった	-14205
すらしてない	-14206
するがゆえに	-14207
ぜったいいい	-14208
そしてそれを	-14209
そのすべてが	-14210
そのとおりさ	-14211
それしかない	-14212
それそのもの	-14213
そんなものを	-14214
たしかにある	-14215
ただひとつの	-14216
たちどころに	-14217
だいじょうぶ	-14218
だったりする	-14219
だったんだね	-14220
だとおもった	-14221
だのなんだの	-14222
だろうという	-14223
ちょっとでも	-14224
っていうなら	-14225
ってください	-14226
ってなんだよ	-14227
って言うのは	-14228
できやしない	-14229
でもいいから	-14230
というほうが	-14231
というものだ	-14232
というわけさ	-14233
という事実が	-14234
という仮定を	-14235
という考えに	-14236
という表現は	-14237
とされている	-14238
とっくの昔に	-14239
と思いました	-14240
なものだった	-14241
なんだろうな	-14242
なんでこんな	-14243
なんでそんな	-14244
にするために	-14245
になっていた	-14246
になるという	-14247
になるんだろ	-14248
になれるんだ	-14249
にはならない	-14250
に過ぎません	-14251
ほど恐ろしい	-14252
まくっている	-14253
まったくない	-14254
まったく同じ	-14255
みたいなもの	-14256
みたいな空気	-14257
もうそろそろ	-14258
ものではなく	-14259
やしないんだ	-14260
やってほしい	-14261
やってもいい	-14262
ゆえ神を創造	-14263
よく考えたら	-14264
ればいいんだ	-14265
わかっている	-14266
をすることを	-14267
をもたらすか	-14268
を抱いている	-14269
を持っており	-14270
を真に受ける	-14271
を繰り返した	-14272
んじゃないよ	-14273
んじゃねえか	-14274
アニメーター	-14275
イライラする	-14276
ウェブサーバ	-14277
オマエの場合	-14278
キャラクタは	-14279
キリスト教が	-14280
クリスティン	-14281
グロテスクな	-14282
ジュリエッタ	-14283
スフィンクス	-14284
ディレクトリ	-14285
ナルシシズム	-14286
ネコちゃんは	-14287
バイアスから	-14288
パトリオット	-14289
ファッション	-14290
ファンファン	-14291
フォルマント	-14292
ボーイッシュ	-14293
メロディーを	-14294
ユークリッド	-14295
世界に対して	-14296
人しかいない	-14297
人間に対して	-14298
以下のような	-14299
修正しました	-14300
先行開始位置	-14301
可能性のある	-14302
否定している	-14303
嘲笑している	-14304
声が聞こえる	-14305
大衆受けする	-14306
引っかかった	-14307
影響を与える	-14308
必要があった	-14309
折り重なった	-14310
普遍的な世界	-14311
書いてあった	-14312
楽しみにして	-14313
欲しいものを	-14314
気にならない	-14315
気になれない	-14316
生まれてきた	-14317
目の前にいる	-14318
私が神を創造	-14319
端的にいって	-14320
続けるという	-14321
聞こえてくる	-14322
能力すらない	-14323
自殺に追いや	-14324
話をしている	-14325
認められない	-14326
認識する以上	-14327
謎でしかない	-14328
足らなすぎる	-14329
近松彦左衛門	-14330
関係している	-14331
頭がおかしい	-14332
顔をしている	-14333
clients	-14334
integer	-14335
locking	-14336
▁Target	-14337
▁anyone	-14338
▁appeal	-14339
▁arbitr	-14340
▁around	-14341
▁become	-14342
▁belief	-14343
▁burden	-14344
▁called	-14345
▁consci	-14346
▁experi	-14347
▁format	-14348
▁glance	-14349
▁global	-14350
▁health	-14351
▁intera	-14352
▁kissed	-14353
▁mental	-14354
▁normal	-14355
▁remain	-14356
▁reshap	-14357
▁search	-14358
▁spirit	-14359
▁target	-14360
▁thread	-14361
▁worthy	-14362
いまかいまかと	-14363
いわせてもらう	-14364
おねがいします	-14365
お願い致します	-14366
かもしれないし	-14367
から解放された	-14368
このプログラム	-14369
させられている	-14370
しかしてこない	-14371
したことがある	-14372
したほうがいい	-14373
してくれないか	-14374
すらしていない	-14375
するかのように	-14376
それそのものを	-14377
だと思っている	-14378
ってはならない	-14379
できなくなった	-14380
ということだよ	-14381
というよりかは	-14382
というジレンマ	-14383
という急き立て	-14384
とかじゃなくて	-14385
どうあがいても	-14386
ないとならない	-14387
なきゃならない	-14388
になっています	-14389
にほかならない	-14390
のほうがずっと	-14391
はっはっはっは	-14392
みたいなものを	-14393
やりたくもない	-14394
を持っています	-14395
オブジェクトの	-14396
グループホーム	-14397
コパイロットに	-14398
コパイロットは	-14399
サーバソケット	-14400
バイアスがある	-14401
ババアの誕生日	-14402
メッセージを発	-14403
ワタシのことを	-14404
一度でいいから	-14405
人材を見極める	-14406
他人にとっては	-14407
何の価値もない	-14408
何を言っている	-14409
地獄でのたうち	-14410
好かれたい欲求	-14411
嫌われることを	-14412
差し上げますよ	-14413
帰納法を用いて	-14414
恣意的な目的に	-14415
息の根を止める	-14416
支配されている	-14417
教えてください	-14418
欲しがっている	-14419
考えているんだ	-14420
解放ゆえの狂気	-14421
閉じ込められた	-14422
3%81%82%	-14423
3%81%99%	-14424
hairetsu	-14425
▁Current	-14426
▁Western	-14427
▁control	-14428
▁convers	-14429
▁destiny	-14430
▁effects	-14431
▁environ	-14432
▁mocking	-14433
▁patient	-14434
▁perhaps	-14435
▁request	-14436
▁version	-14437
▁waiting	-14438
▁without	-14439
▁そう思いながら	-14440
▁インターネット	-14441
があるでっしゃろ	-14442
がそもそもとして	-14443
くれてありがとう	-14444
ことがあるたびに	-14445
ことを示している	-14446
この世でもっとも	-14447
ざるをえなかった	-14448
したいことがある	-14449
すらされていない	-14450
するんじゃなくて	-14451
だから仕方がない	-14452
だったらどうする	-14453
できるだけ忠実に	-14454
というメッセージ	-14455
という事実がある	-14456
といわんばかりだ	-14457
どうかんがえても	-14458
どうでもよくなる	-14459
なくなっちゃった	-14460
などといいながら	-14461
なんでもかんでも	-14462
に過ぎないという	-14463
の意味するところ	-14464
の考えた自分の餌	-14465
わからないように	-14466
インジェクション	-14467
インターネットで	-14468
コントロールする	-14469
シミュレーション	-14470
テキストファイル	-14471
人を不快にさせる	-14472
何を意味している	-14473
意味がわからない	-14474
描いてはならない	-14475
覗き見られている	-14476
alueError	-14477
frequency	-14478
pretation	-14479
ynthesize	-14480
▁2024/10/	-14481
▁activity	-14482
▁behavior	-14483
▁determin	-14484
▁hairetsu	-14485
▁phenomen	-14486
▁relation	-14487
▁salvaged	-14488
しているかのような	-14489
することができない	-14490
ではないでしょうか	-14491
やることなすことを	-14492
やる気のないことを	-14493
▁aesthetic	-14494
▁authority	-14495
▁principle	-14496
させなければならない	-14497
しているように見える	-14498
であることはたしかだ	-14499
インジェクション攻撃	-14500
キリスト教を信じない	-14501
ブロッキングソケット	-14502
神の代わりを創造する	-14503
―――――――――――	-14504
▁Hikozaemon	-14505
▁absolutely	-14506
▁controlled	-14507
▁impossible	-14508
▁individual	-14509
▁properties	-14510
▁そこに次の数値を代入	-14511
ようにインプットされた	-14512
海を観測する能力がない	-14513
▁conditioner	-14514
でもなんでもありはしない	-14515
というものが存在している	-14516
▁conversation	-14517
▁disagreement	-14518
!!!!!!!!!!!!!1	-14519
▁computational	-14520
好きな人に夢中になってほしい	-14521
あああああああああああああああ	-14522
!～	-14523
)/	-14524
)★	-14525
++	-14526
+?	-14527
-,	-14528
._	-14529
/*	-14530
1(	-14531
4)	-14532
9.	-14533
90	-14534
:.	-14535
;}	-14536
<●	-14537
=8	-14538
AU	-14539
BD	-14540
Bm	-14541
CG	-14542
HK	-14543
HT	-14544
IF	-14545
JO	-14546
KU	-14547
LE	-14548
LO	-14549
MP	-14550
No	-14551
PH	-14552
UR	-14553
UT	-14554
^(	-14555
ac	-14556
bē	-14557
dd	-14558
fǎ	-14559
hy	-14560
iú	-14561
ji	-14562
kg	-14563
na	-14564
ns	-14565
of	-14566
ts	-14567
wr	-14568
yǐ	-14569
zǐ	-14570
èi	-14571
ùn	-14572
ún	-14573
úr	-14574
▁)	-14575
▁.	-14576
▁~	-14577
▁–	-14578
▁”	-14579
▁、	-14580
▁ご	-14581
▁つ	-14582
▁ろ	-14583
▁ス	-14584
▁メ	-14585
▁レ	-14586
▁ワ	-14587
▁不	-14588
▁人	-14589
▁出	-14590
▁半	-14591
▁嫌	-14592
▁思	-14593
▁性	-14594
▁春	-14595
▁朝	-14596
▁爱	-14597
▁男	-14598
、"	-14599
、、	-14600
。3	-14601
。:	-14602
々が	-14603
々を	-14604
ぁー	-14605
あう	-14606
あさ	-14607
うぉ	-14608
うや	-14609
うー	-14610
えな	-14611
えぬ	-14612
えび	-14613
えら	-14614
お題	-14615
かざ	-14616
がぶ	-14617
がよ	-14618
が下	-14619
が何	-14620
が使	-14621
が行	-14622
くな	-14623
くま	-14624
くも	-14625
ぐい	-14626
けぺ	-14627
げら	-14628
こっ	-14629
こな	-14630
こに	-14631
ごま	-14632
さぞ	-14633
さね	-14634
しで	-14635
しゅ	-14636
じぶ	-14637
すぞ	-14638
すれ	-14639
すん	-14640
ずり	-14641
せな	-14642
せに	-14643
そー	-14644
ぞわ	-14645
ぞん	-14646
たけ	-14647
たす	-14648
っっ	-14649
つほ	-14650
つめ	-14651
つん	-14652
つ持	-14653
つ角	-14654
てエ	-14655
でお	-14656
で合	-14657
とけ	-14658
とゆ	-14659
とイ	-14660
と仲	-14661
と命	-14662
と銘	-14663
どり	-14664
なぁ	-14665
な者	-14666
にた	-14667
に刺	-14668
に加	-14669
に堪	-14670
に映	-14671
に浸	-14672
に纏	-14673
ぬる	-14674
ねこ	-14675
のぞ	-14676
の倍	-14677
の出	-14678
の化	-14679
の影	-14680
の箱	-14681
の総	-14682
の自	-14683
の融	-14684
の見	-14685
ばた	-14686
ひょ	-14687
ひり	-14688
びた	-14689
びり	-14690
ふれ	-14691
ぷぷ	-14692
べく	-14693
べし	-14694
べろ	-14695
ぼて	-14696
みと	-14697
みや	-14698
みー	-14699
むら	-14700
も愛	-14701
やい	-14702
やの	-14703
ゆら	-14704
らぬ	-14705
り代	-14706
れど	-14707
をさ	-14708
をみ	-14709
を例	-14710
を吸	-14711
を吹	-14712
を唱	-14713
を改	-14714
を流	-14715
を消	-14716
を深	-14717
を突	-14718
を育	-14719
を飼	-14720
を齎	-14721
んち	-14722
んぼ	-14723
アバ	-14724
アプ	-14725
エニ	-14726
エン	-14727
オタ	-14728
カツ	-14729
キメ	-14730
ギ学	-14731
クエ	-14732
グマ	-14733
グミ	-14734
ケチ	-14735
ケッ	-14736
ゲイ	-14737
コダ	-14738
コネ	-14739
コミ	-14740
サブ	-14741
サマ	-14742
サム	-14743
サル	-14744
ザー	-14745
シロ	-14746
ジオ	-14747
スラ	-14748
スリ	-14749
スレ	-14750
ズル	-14751
セク	-14752
タチ	-14753
ダリ	-14754
ッグ	-14755
ッシ	-14756
ッジ	-14757
ツに	-14758
ツマ	-14759
デジ	-14760
デス	-14761
トム	-14762
ドウ	-14763
ドバ	-14764
ネエ	-14765
ネチ	-14766
ネラ	-14767
ハナ	-14768
ハネ	-14769
ハメ	-14770
ハヤ	-14771
バト	-14772
ヒコ	-14773
ビデ	-14774
フガ	-14775
フフ	-14776
フー	-14777
ブッ	-14778
ヘイ	-14779
ホン	-14780
ボソ	-14781
ボタ	-14782
ボン	-14783
ポウ	-14784
モラ	-14785
ヨヨ	-14786
ラダ	-14787
ラリ	-14788
ラル	-14789
リベ	-14790
ルド	-14791
ロク	-14792
ロン	-14793
ヴェ	-14794
ヶ月	-14795
ーっ	-14796
一の	-14797
一億	-14798
一帯	-14799
一目	-14800
一覧	-14801
一貫	-14802
一面	-14803
三回	-14804
三郎	-14805
上層	-14806
上限	-14807
不条	-14808
不法	-14809
不満	-14810
不祥	-14811
世代	-14812
両価	-14813
中が	-14814
中は	-14815
中田	-14816
主語	-14817
丽丝	-14818
乗っ	-14819
乞う	-14820
予め	-14821
予感	-14822
予言	-14823
事柄	-14824
事業	-14825
事細	-14826
事項	-14827
人口	-14828
人種	-14829
今も	-14830
今や	-14831
今更	-14832
代価	-14833
代償	-14834
件を	-14835
休憩	-14836
体で	-14837
体臭	-14838
何で	-14839
何万	-14840
例の	-14841
例を	-14842
供述	-14843
侮蔑	-14844
侵害	-14845
保つ	-14846
保有	-14847
保証	-14848
倍の	-14849
健全	-14850
偽り	-14851
偽善	-14852
催促	-14853
傾眠	-14854
傾聴	-14855
像が	-14856
儚げ	-14857
優勝	-14858
優子	-14859
元来	-14860
元栓	-14861
充足	-14862
先を	-14863
先天	-14864
光景	-14865
入口	-14866
入賞	-14867
共が	-14868
共は	-14869
具現	-14870
典型	-14871
内を	-14872
内省	-14873
円で	-14874
再開	-14875
冒険	-14876
冤罪	-14877
冷酷	-14878
処方	-14879
分で	-14880
分家	-14881
分詞	-14882
判別	-14883
制御	-14884
制約	-14885
制裁	-14886
刻み	-14887
前述	-14888
副詞	-14889
力だ	-14890
加熱	-14891
効か	-14892
効く	-14893
動し	-14894
勘弁	-14895
勢い	-14896
化師	-14897
医師	-14898
半は	-14899
単位	-14900
印刷	-14901
厄介	-14902
原作	-14903
及ぼ	-14904
反撃	-14905
反語	-14906
収集	-14907
口実	-14908
古代	-14909
古典	-14910
叩き	-14911
叩く	-14912
台無	-14913
叶う	-14914
司る	-14915
各地	-14916
合致	-14917
吐く	-14918
君も	-14919
君ら	-14920
告発	-14921
周辺	-14922
命は	-14923
商業	-14924
善意	-14925
喋り	-14926
喜べ	-14927
喝采	-14928
喧伝	-14929
噛み	-14930
器官	-14931
回は	-14932
図が	-14933
地の	-14934
地方	-14935
型を	-14936
場面	-14937
増す	-14938
売上	-14939
夕食	-14940
外見	-14941
夜中	-14942
大の	-14943
天然	-14944
天邪	-14945
失踪	-14946
奴に	-14947
妖精	-14948
始末	-14949
孤独	-14950
宣う	-14951
寓話	-14952
察知	-14953
審査	-14954
寸分	-14955
対極	-14956
対決	-14957
対等	-14958
対角	-14959
尊ぶ	-14960
小学	-14961
小節	-14962
少な	-14963
就労	-14964
居候	-14965
山長	-14966
巣に	-14967
巨大	-14968
巻く	-14969
帰結	-14970
床に	-14971
店に	-14972
度と	-14973
座り	-14974
庭園	-14975
弁当	-14976
式に	-14977
弟が	-14978
弱な	-14979
役の	-14980
彼が	-14981
彼と	-14982
征服	-14983
御掟	-14984
御託	-14985
循環	-14986
心と	-14987
心境	-14988
心配	-14989
忍び	-14990
応援	-14991
念を	-14992
怒る	-14993
性だ	-14994
性具	-14995
性悪	-14996
恋に	-14997
悪事	-14998
悪態	-14999
悪者	-15000
悲劇	-15001
情に	-15002
惨殺	-15003
愚鈍	-15004
愛情	-15005
感づ	-15006
感触	-15007
憐れ	-15008
成る	-15009
成果	-15010
我儘	-15011
戦い	-15012
戻る	-15013
所だ	-15014
手ご	-15015
手下	-15016
手伝	-15017
手元	-15018
手玉	-15019
手術	-15020
手間	-15021
打た	-15022
投票	-15023
披露	-15024
抱く	-15025
担保	-15026
担当	-15027
持た	-15028
指を	-15029
指向	-15030
指標	-15031
挽肉	-15032
挿入	-15033
掃除	-15034
探し	-15035
推敲	-15036
揚げ	-15037
損な	-15038
搾り	-15039
撃ち	-15040
撃の	-15041
撮り	-15042
撮影	-15043
支持	-15044
支障	-15045
支離	-15046
改造	-15047
攻略	-15048
放出	-15049
放射	-15050
政策	-15051
故に	-15052
敗け	-15053
教訓	-15054
敬語	-15055
数は	-15056
数日	-15057
整数	-15058
敵の	-15059
斎藤	-15060
料の	-15061
断然	-15062
新人	-15063
日誌	-15064
明快	-15065
星の	-15066
映し	-15067
昼は	-15068
時と	-15069
時も	-15070
暇な	-15071
暗い	-15072
暗号	-15073
暗黒	-15074
暴力	-15075
暴言	-15076
書か	-15077
書籍	-15078
最早	-15079
最短	-15080
月の	-15081
有利	-15082
有用	-15083
望み	-15084
未満	-15085
末娘	-15086
末尾	-15087
末端	-15088
本音	-15089
柔軟	-15090
根を	-15091
根源	-15092
検査	-15093
業界	-15094
極め	-15095
様だ	-15096
様な	-15097
様相	-15098
横に	-15099
欠如	-15100
欺く	-15101
歌唱	-15102
歌謡	-15103
正直	-15104
歩き	-15105
死亡	-15106
死者	-15107
残り	-15108
母を	-15109
民は	-15110
気軽	-15111
水準	-15112
氷河	-15113
決意	-15114
法で	-15115
注視	-15116
洗い	-15117
洞窟	-15118
津波	-15119
流し	-15120
浅い	-15121
浮き	-15122
淫奔	-15123
済ま	-15124
減少	-15125
湧き	-15126
満点	-15127
準拠	-15128
滅び	-15129
滅ぶ	-15130
滅茶	-15131
滅裂	-15132
激怒	-15133
火を	-15134
災害	-15135
無事	-15136
無害	-15137
父と	-15138
物品	-15139
犬に	-15140
独立	-15141
独裁	-15142
独身	-15143
狸ヶ	-15144
王は	-15145
王冠	-15146
球面	-15147
琴線	-15148
生の	-15149
産む	-15150
男か	-15151
男神	-15152
画力	-15153
番人	-15154
番号	-15155
疑う	-15156
痕跡	-15157
痛切	-15158
発現	-15159
白菜	-15160
的確	-15161
皮膚	-15162
目ざ	-15163
目標	-15164
目線	-15165
直す	-15166
看板	-15167
看破	-15168
眠い	-15169
着目	-15170
着飾	-15171
矢印	-15172
知見	-15173
短い	-15174
石像	-15175
研修	-15176
社交	-15177
祖母	-15178
称し	-15179
称号	-15180
種を	-15181
空腹	-15182
空虚	-15183
竿役	-15184
笑顔	-15185
等は	-15186
築き	-15187
系は	-15188
素人	-15189
素質	-15190
終止	-15191
組織	-15192
絵柄	-15193
継承	-15194
線の	-15195
線形	-15196
締め	-15197
繁に	-15198
繋ぐ	-15199
羨望	-15200
者だ	-15201
者達	-15202
聞け	-15203
職業	-15204
背徳	-15205
脳み	-15206
脳紋	-15207
自在	-15208
自発	-15209
自虐	-15210
色い	-15211
芋虫	-15212
芸当	-15213
芸能	-15214
苛烈	-15215
苦を	-15216
苦茶	-15217
葉被	-15218
葛藤	-15219
虚飾	-15220
虫け	-15221
蟻塚	-15222
行け	-15223
表象	-15224
装置	-15225
裏切	-15226
補償	-15227
補強	-15228
複合	-15229
見積	-15230
親子	-15231
親札	-15232
観点	-15233
解き	-15234
解剖	-15235
解消	-15236
解答	-15237
言付	-15238
計り	-15239
診断	-15240
話で	-15241
誘い	-15242
誘導	-15243
説が	-15244
論破	-15245
論証	-15246
豪邸	-15247
貧困	-15248
賢者	-15249
起源	-15250
起点	-15251
蹴り	-15252
転向	-15253
輝き	-15254
辺に	-15255
辿り	-15256
返信	-15257
迫る	-15258
逃走	-15259
逆の	-15260
逆算	-15261
透視	-15262
途方	-15263
通し	-15264
通底	-15265
通話	-15266
連結	-15267
連載	-15268
逸ら	-15269
遂行	-15270
過言	-15271
道を	-15272
達者	-15273
遠回	-15274
適用	-15275
選定	-15276
部の	-15277
都市	-15278
配信	-15279
重ね	-15280
野良	-15281
野菜	-15282
量を	-15283
長文	-15284
長編	-15285
間隔	-15286
闇に	-15287
防衛	-15288
除算	-15289
際の	-15290
隣の	-15291
隣接	-15292
雄山	-15293
雅な	-15294
雇用	-15295
雌雄	-15296
難儀	-15297
難題	-15298
需要	-15299
響く	-15300
頭は	-15301
顔色	-15302
願う	-15303
飯は	-15304
首謀	-15305
馴れ	-15306
高く	-15307
魂の	-15308
魂は	-15309
魂を	-15310
魔女	-15311
黄金	-15312
～4	-15313
～5	-15314
!?)	-15315
(((	-15316
():	-15317
)/1	-15318
)12	-15319
);}	-15320
09(	-15321
10.	-15322
151	-15323
200	-15324
4%9	-15325
50%	-15326
66.	-15327
8%9	-15328
<●>	-15329
=0.	-15330
?!」	-15331
??!	-15332
ACK	-15333
ADE	-15334
AGT	-15335
ARA	-15336
ART	-15337
BPE	-15338
DAI	-15339
LLM	-15340
LTY	-15341
NNO	-15342
OND	-15343
OUR	-15344
PHO	-15345
Ver	-15346
[2]	-15347
ank	-15348
ask	-15349
ats	-15350
bēi	-15351
cod	-15352
cop	-15353
ctu	-15354
cul	-15355
ear	-15356
eed	-15357
eep	-15358
eld	-15359
gor	-15360
ibr	-15361
ilt	-15362
ily	-15363
iān	-15364
jìn	-15365
kay	-15366
law	-15367
les	-15368
loy	-15369
man	-15370
ock	-15371
por	-15372
rid	-15373
sus	-15374
tag	-15375
ubs	-15376
ump	-15377
yǐn	-15378
zhě	-15379
zuì	-15380
áng	-15381
éng	-15382
ízh	-15383
òng	-15384
úfǎ	-15385
īnt	-15386
ǎng	-15387
▁->	-15388
▁1)	-15389
▁1]	-15390
▁2・	-15391
▁30	-15392
▁8・	-15393
▁9・	-15394
▁FM	-15395
▁II	-15396
▁Oh	-15397
▁On	-15398
▁Or	-15399
▁ST	-15400
▁We	-15401
▁Zh	-15402
▁ap	-15403
▁bù	-15404
▁cy	-15405
▁dr	-15406
▁ep	-15407
▁gù	-15408
▁ji	-15409
▁mě	-15410
▁nn	-15411
▁ra	-15412
▁ài	-15413
▁あす	-15414
▁あー	-15415
▁お姉	-15416
▁だめ	-15417
▁とは	-15418
▁エロ	-15419
▁サビ	-15420
▁メス	-15421
▁一番	-15422
▁人の	-15423
▁今も	-15424
▁今日	-15425
▁修正	-15426
▁僕を	-15427
▁勉強	-15428
▁感情	-15429
▁日本	-15430
▁次に	-15431
▁母音	-15432
▁漫画	-15433
▁理解	-15434
▁目を	-15435
▁私に	-15436
▁私も	-15437
▁絶対	-15438
▁総合	-15439
▁花子	-15440
▁質問	-15441
▁音楽	-15442
▁頭に	-15443
▁아내	-15444
▁～～	-15445
⭐⭐⭐	-15446
、00	-15447
、20	-15448
あいう	-15449
あるし	-15450
あわせ	-15451
いいえ	-15452
いいし	-15453
いうか	-15454
いうよ	-15455
いくつ	-15456
いけん	-15457
いたく	-15458
いっぽ	-15459
いつう	-15460
いつく	-15461
いて行	-15462
いまや	-15463
いらぬ	-15464
うえに	-15465
うちの	-15466
うまい	-15467
うんざ	-15468
うんち	-15469
える力	-15470
えんだ	-15471
おでが	-15472
おのず	-15473
おめで	-15474
お前も	-15475
かくも	-15476
かして	-15477
かたく	-15478
かねて	-15479
かれの	-15480
かろう	-15481
がまず	-15482
がると	-15483
がわか	-15484
が一定	-15485
が全部	-15486
が導き	-15487
が残る	-15488
が滅亡	-15489
が現れ	-15490
が発達	-15491
が立ち	-15492
が続く	-15493
が高い	-15494
きいた	-15495
きたす	-15496
くせえ	-15497
くっつ	-15498
けぺー	-15499
こそぎ	-15500
この絵	-15501
ころび	-15502
ごとき	-15503
さした	-15504
さなぎ	-15505
さらけ	-15506
さんを	-15507
しかる	-15508
したし	-15509
しゃべ	-15510
しろと	-15511
すぎだ	-15512
すぎで	-15513
すっと	-15514
するね	-15515
する癖	-15516
ずらず	-15517
せいや	-15518
そう思	-15519
そっく	-15520
その実	-15521
その昔	-15522
その点	-15523
その話	-15524
それら	-15525
そんじ	-15526
たかが	-15527
たがい	-15528
たちと	-15529
ためを	-15530
たんだ	-15531
たんぽ	-15532
だした	-15533
だとさ	-15534
だのは	-15535
だるい	-15536
ちがい	-15537
ちくり	-15538
ちっと	-15539
ちょい	-15540
ちょう	-15541
ちんこ	-15542
った時	-15543
ってか	-15544
って誰	-15545
つから	-15546
つなが	-15547
つぶや	-15548
つまら	-15549
づけを	-15550
でもう	-15551
で人に	-15552
で流行	-15553
で済む	-15554
で続き	-15555
で表現	-15556
といえ	-15557
とかが	-15558
とされ	-15559
とはね	-15560
とは一	-15561
とるし	-15562
と不快	-15563
と仮定	-15564
と叫ぶ	-15565
と命令	-15566
と宣う	-15567
と思わ	-15568
と断定	-15569
と自覚	-15570
と苦痛	-15571
と表記	-15572
どんで	-15573
なから	-15574
なぜど	-15575
なぞは	-15576
などで	-15577
なども	-15578
ならな	-15579
なれよ	-15580
にかえ	-15581
にだけ	-15582
にとど	-15583
にとり	-15584
にはい	-15585
にぶち	-15586
にゃろ	-15587
にホッ	-15588
に乗っ	-15589
に出て	-15590
に変身	-15591
に思う	-15592
に悩ま	-15593
に最も	-15594
に照ら	-15595
に目が	-15596
ねこれ	-15597
のおば	-15598
のお父	-15599
のかも	-15600
のでね	-15601
のはず	-15602
のもと	-15603
のカネ	-15604
の一切	-15605
の乳首	-15606
の二極	-15607
の人工	-15608
の位置	-15609
の倍数	-15610
の喪失	-15611
の声を	-15612
の女神	-15613
の姿が	-15614
の情報	-15615
の支配	-15616
の政治	-15617
の時に	-15618
の構図	-15619
の次に	-15620
の特徴	-15621
の発展	-15622
の神格	-15623
の神秘	-15624
の神髄	-15625
の第一	-15626
の考え	-15627
の自己	-15628
の言を	-15629
の長さ	-15630
の領域	-15631
はだれ	-15632
はやい	-15633
はるか	-15634
は他の	-15635
は可能	-15636
は汚い	-15637
ばかな	-15638
ひっこ	-15639
ひょう	-15640
ふーん	-15641
ぶつけ	-15642
ぶりに	-15643
ほうに	-15644
ほかの	-15645
ほざき	-15646
ぼくね	-15647
ぼくの	-15648
まがい	-15649
まさぐ	-15650
まして	-15651
ませて	-15652
までが	-15653
みえて	-15654
もった	-15655
ものと	-15656
やけに	-15657
やさい	-15658
やつだ	-15659
やねん	-15660
やるさ	-15661
やれば	-15662
やろな	-15663
や睡眠	-15664
よいね	-15665
ようさ	-15666
ようと	-15667
よく知	-15668
りした	-15669
りして	-15670
るとか	-15671
ろくに	-15672
をかき	-15673
をつき	-15674
をどう	-15675
を保持	-15676
を含む	-15677
を失い	-15678
を張る	-15679
を形成	-15680
を振る	-15681
を捨て	-15682
を探る	-15683
を探索	-15684
を操作	-15685
を殺す	-15686
を生み	-15687
を生む	-15688
を発揮	-15689
を発明	-15690
を続け	-15691
を自動	-15692
を見破	-15693
を証明	-15694
を誘う	-15695
を調べ	-15696
を超え	-15697
を閉じ	-15698
を開発	-15699
を高め	-15700
んなじ	-15701
アブレ	-15702
アプリ	-15703
イッパ	-15704
イヤミ	-15705
イング	-15706
インフ	-15707
イージ	-15708
ウェア	-15709
ウラに	-15710
エティ	-15711
エラー	-15712
エルの	-15713
オーラ	-15714
ガズム	-15715
ギャグ	-15716
ギ学院	-15717
クイズ	-15718
クシー	-15719
クスッ	-15720
クター	-15721
クラス	-15722
クール	-15723
グスタ	-15724
グラム	-15725
ケージ	-15726
ケース	-15727
ココナ	-15728
コンの	-15729
ゴン狐	-15730
サタン	-15731
サンプ	-15732
サヴァ	-15733
シャル	-15734
シラケ	-15735
シリエ	-15736
ジャス	-15737
スット	-15738
セリフ	-15739
ソレに	-15740
ソンの	-15741
ゾフ蜂	-15742
タマゴ	-15743
ダイエ	-15744
ダラの	-15745
チャネ	-15746
チラシ	-15747
ッシャ	-15748
テクノ	-15749
テレオ	-15750
デート	-15751
ドイツ	-15752
ニコ動	-15753
ネッツ	-15754
ノミー	-15755
ノンケ	-15756
ハヤオ	-15757
バカが	-15758
バカな	-15759
バッグ	-15760
バリア	-15761
バレた	-15762
パシー	-15763
ヒャン	-15764
ビュー	-15765
ピンポ	-15766
ピーの	-15767
フィア	-15768
ブラリ	-15769
ホンマ	-15770
ボール	-15771
マニア	-15772
マリア	-15773
ミサイ	-15774
ミャク	-15775
ムスカ	-15776
モノは	-15777
モンの	-15778
ヤマア	-15779
ラブレ	-15780
リンゴ	-15781
ングル	-15782
ンコを	-15783
ンスを	-15784
ーッッ	-15785
ールド	-15786
ーンと	-15787
一人善	-15788
一心で	-15789
一番手	-15790
一目で	-15791
一瞬で	-15792
一種類	-15793
一言で	-15794
上です	-15795
上層部	-15796
上述の	-15797
上長が	-15798
不一致	-15799
不利益	-15800
不可視	-15801
不自由	-15802
両価性	-15803
両者は	-15804
中から	-15805
中では	-15806
中国で	-15807
中国の	-15808
中国語	-15809
中田氏	-15810
久石譲	-15811
乗り移	-15812
乗り越	-15813
事実に	-15814
二人は	-15815
二回目	-15816
二次元	-15817
互いに	-15818
人格と	-15819
人物は	-15820
人物を	-15821
仄めか	-15822
今どき	-15823
今後は	-15824
代替品	-15825
会話を	-15826
伴って	-15827
似てる	-15828
低知能	-15829
体系も	-15830
作ろう	-15831
作家の	-15832
作家は	-15833
作戦を	-15834
作曲家	-15835
作者が	-15836
依り代	-15837
価値を	-15838
侵略者	-15839
個々の	-15840
個人が	-15841
倍々に	-15842
倫理的	-15843
備えた	-15844
傷つき	-15845
先方が	-15846
先生の	-15847
光です	-15848
光を欲	-15849
全体が	-15850
全体に	-15851
内での	-15852
内なる	-15853
内的に	-15854
再定義	-15855
冷たく	-15856
凡庸な	-15857
分ける	-15858
切れた	-15859
判断も	-15860
別に罪	-15861
別名は	-15862
創作が	-15863
創作物	-15864
助ける	-15865
努力が	-15866
効果が	-15867
動画に	-15868
勝利者	-15869
半分は	-15870
危ない	-15871
厄神様	-15872
原始人	-15873
原理で	-15874
及んで	-15875
友達が	-15876
取り戻	-15877
取り残	-15878
取れる	-15879
可能だ	-15880
名乗る	-15881
名前の	-15882
周りが	-15883
周囲に	-15884
味わう	-15885
味方が	-15886
呼んで	-15887
喋った	-15888
嘲った	-15889
嘲りの	-15890
嘲笑う	-15891
回って	-15892
困難な	-15893
図とか	-15894
国民の	-15895
地位は	-15896
地獄は	-15897
執着は	-15898
場所を	-15899
塗りの	-15900
増幅器	-15901
壊れた	-15902
壮絶な	-15903
売って	-15904
変態の	-15905
変革を	-15906
外性器	-15907
外部に	-15908
夢を見	-15909
大事な	-15910
大人の	-15911
大切な	-15912
大声で	-15913
天照の	-15914
天邪鬼	-15915
奇妙な	-15916
契約を	-15917
奔放で	-15918
女に恋	-15919
女子高	-15920
女性だ	-15921
女性器	-15922
女扱い	-15923
女神が	-15924
好きの	-15925
好まれ	-15926
妄想だ	-15927
妬み顔	-15928
委ねる	-15929
嫌がる	-15930
存外に	-15931
学者か	-15932
安心へ	-15933
完了形	-15934
完全な	-15935
定める	-15936
定番の	-15937
宜しく	-15938
客観視	-15939
寄せる	-15940
寄り添	-15941
寄生虫	-15942
寝ても	-15943
審美眼	-15944
対消滅	-15945
対象の	-15946
将軍の	-15947
将軍様	-15948
尋ねた	-15949
小ネタ	-15950
少女は	-15951
少女を	-15952
差し伸	-15953
年から	-15954
年寄り	-15955
幻聴が	-15956
幼稚園	-15957
度合い	-15958
建物が	-15959
張った	-15960
形容詞	-15961
役立つ	-15962
彼女を	-15963
彼等を	-15964
後ろに	-15965
従来の	-15966
得たい	-15967
心して	-15968
必要で	-15969
志向し	-15970
念じる	-15971
性を見	-15972
性奴隷	-15973
性悪説	-15974
怪物の	-15975
恋人を	-15976
恋愛で	-15977
恐怖で	-15978
恐怖の	-15979
恐怖を	-15980
悪いが	-15981
悪くて	-15982
悪意を	-15983
悪魔が	-15984
悲しむ	-15985
悲し気	-15986
情報は	-15987
情報戦	-15988
惜しみ	-15989
想いを	-15990
意識の	-15991
愛と恋	-15992
感じを	-15993
感情は	-15994
戦争が	-15995
手にも	-15996
手に負	-15997
手動で	-15998
手紙が	-15999
手足を	-16000
抜かす	-16001
拷問を	-16002
指摘し	-16003
挙動が	-16004
掛ける	-16005
推測で	-16006
描かれ	-16007
描くと	-16008
描こう	-16009
描写は	-16010
操った	-16011
支援所	-16012
支配の	-16013
教えた	-16014
教える	-16015
教会の	-16016
教室の	-16017
散らか	-16018
数字の	-16019
文字と	-16020
断定者	-16021
方には	-16022
方法が	-16023
旅に出	-16024
日本人	-16025
明らか	-16026
映像が	-16027
春風は	-16028
時ほど	-16029
時代が	-16030
暴れた	-16031
曲げる	-16032
書かれ	-16033
書き連	-16034
替えた	-16035
最下位	-16036
月には	-16037
有名な	-16038
朝から	-16039
木村と	-16040
木村に	-16041
木村を	-16042
本来は	-16043
極悪人	-16044
楽しめ	-16045
楽曲は	-16046
概念に	-16047
構成の	-16048
構造の	-16049
欠かせ	-16050
次世界	-16051
欲望を	-16052
欲求は	-16053
正解を	-16054
死に絶	-16055
残した	-16056
残して	-16057
殺せる	-16058
比較的	-16059
気に食	-16060
気軽に	-16061
洋服は	-16062
洗脳と	-16063
流れる	-16064
浴びて	-16065
消極的	-16066
減った	-16067
満ちた	-16068
満足感	-16069
溶ける	-16070
滅ぼす	-16071
潰して	-16072
無力な	-16073
父なる	-16074
片方が	-16075
物事の	-16076
物事は	-16077
物言い	-16078
物質的	-16079
特殊な	-16080
犯人は	-16081
狂気の	-16082
狙って	-16083
独りよ	-16084
王座に	-16085
珍しい	-16086
現実に	-16087
理屈で	-16088
理由で	-16089
理由は	-16090
理論は	-16091
生えた	-16092
生えて	-16093
生き返	-16094
生命が	-16095
生命の	-16096
生涯で	-16097
用紙に	-16098
田んぼ	-16099
男でも	-16100
男女は	-16101
男子に	-16102
異様に	-16103
病んで	-16104
発する	-16105
目すら	-16106
相当の	-16107
相手も	-16108
眠気が	-16109
矛盾は	-16110
知覚の	-16111
確率を	-16112
社会は	-16113
社会を	-16114
神話を	-16115
私より	-16116
空っぽ	-16117
空間を	-16118
笑える	-16119
笑顔で	-16120
等しく	-16121
管理し	-16122
管理表	-16123
精一杯	-16124
精神が	-16125
系だの	-16126
素材を	-16127
紡いだ	-16128
統計学	-16129
続いて	-16130
綺麗な	-16131
綺麗事	-16132
緩衝材	-16133
繋がる	-16134
罪を犯	-16135
羅列か	-16136
聞けば	-16137
肉体が	-16138
肉体は	-16139
背理と	-16140
能動的	-16141
自信満	-16142
至上の	-16143
興味は	-16144
興味を	-16145
色んな	-16146
苦しい	-16147
苦痛が	-16148
苦痛は	-16149
葉被告	-16150
蔓延る	-16151
行ける	-16152
行為だ	-16153
表現に	-16154
裏切る	-16155
複数の	-16156
見つか	-16157
見よう	-16158
見る者	-16159
見れる	-16160
見向き	-16161
視点で	-16162
視点を	-16163
視線は	-16164
覗いて	-16165
親父が	-16166
観点で	-16167
言動を	-16168
言葉と	-16169
計画は	-16170
記憶の	-16171
許して	-16172
証明が	-16173
詐欺師	-16174
詳しく	-16175
誇り高	-16176
語り継	-16177
誰しも	-16178
誰だよ	-16179
調子が	-16180
論ずる	-16181
諦める	-16182
諦めろ	-16183
警察に	-16184
負けた	-16185
贅沢を	-16186
超えた	-16187
超える	-16188
距離が	-16189
辻斬り	-16190
込めた	-16191
近づく	-16192
返した	-16193
述べて	-16194
追体験	-16195
追撃の	-16196
退屈な	-16197
逃げて	-16198
逆に見	-16199
逆探知	-16200
途中で	-16201
通じる	-16202
速さで	-16203
過去の	-16204
道化師	-16205
違いが	-16206
部位に	-16207
部屋で	-16208
都合が	-16209
重きを	-16210
重荷を	-16211
長さは	-16212
長さを	-16213
長音階	-16214
開き直	-16215
関わり	-16216
関係で	-16217
関数は	-16218
除いて	-16219
隠れる	-16220
集中力	-16221
震える	-16222
非国民	-16223
音声で	-16224
音楽で	-16225
頭から	-16226
頻繁に	-16227
頼むよ	-16228
願って	-16229
飛ばす	-16230
食べた	-16231
食べ物	-16232
食欲は	-16233
飽きて	-16234
高尚な	-16235
高速で	-16236
鳴らす	-16237
%99%	-16238
',['	-16239
)100	-16240
....	-16241
2025	-16242
=1/3	-16243
=1/5	-16244
=15,	-16245
ASHI	-16246
FADE	-16247
Fire	-16248
INET	-16249
NEME	-16250
REAM	-16251
Sent	-16252
This	-16253
ably	-16254
abyr	-16255
amed	-16256
ands	-16257
ants	-16258
ased	-16259
atin	-16260
ault	-16261
axis	-16262
dict	-16263
dàng	-16264
esus	-16265
face	-16266
ffee	-16267
ging	-16268
haha	-16269
igit	-16270
ikip	-16271
imes	-16272
info	-16273
init	-16274
inox	-16275
inst	-16276
inth	-16277
ison	-16278
item	-16279
iven	-16280
ized	-16281
leep	-16282
lián	-16283
mory	-16284
must	-16285
news	-16286
nown	-16287
ploy	-16288
reme	-16289
ries	-16290
ropy	-16291
sess	-16292
side	-16293
site	-16294
ters	-16295
udge	-16296
will	-16297
xiào	-16298
zhǎo	-16299
ùguò	-16300
úrán	-16301
ǐshì	-16302
▁*/}	-16303
▁-20	-16304
▁-56	-16305
▁-65	-16306
▁IPC	-16307
▁Wèi	-16308
▁abs	-16309
▁ben	-16310
▁bié	-16311
▁cer	-16312
▁col	-16313
▁die	-16314
▁eye	-16315
▁gra	-16316
▁hom	-16317
▁hon	-16318
▁hur	-16319
▁hyp	-16320
▁ill	-16321
▁kàn	-16322
▁kùn	-16323
▁mad	-16324
▁min	-16325
▁mùg	-16326
▁nat	-16327
▁pat	-16328
▁pit	-16329
▁pun	-16330
▁qiú	-16331
▁ris	-16332
▁rob	-16333
▁rén	-16334
▁sat	-16335
▁sli	-16336
▁sug	-16337
▁suǒ	-16338
▁tem	-16339
▁uni	-16340
▁usu	-16341
▁xiě	-16342
▁xún	-16343
▁yoi	-16344
▁zhù	-16345
▁zuì	-16346
▁{/*	-16347
▁あいつ	-16348
▁あとで	-16349
▁あんた	-16350
▁いいよ	-16351
▁いやだ	-16352
▁おとう	-16353
▁ここで	-16354
▁ここに	-16355
▁ここは	-16356
▁ことば	-16357
▁なにを	-16358
▁もう還	-16359
▁アイツ	-16360
▁アタシ	-16361
▁アリス	-16362
▁不定詞	-16363
▁人間が	-16364
▁助動詞	-16365
▁句読点	-16366
▁新しい	-16367
▁最後に	-16368
▁本当は	-16369
▁爱丽丝	-16370
▁狭い愛	-16371
▁疑問者	-16372
▁私には	-16373
▁著作権	-16374
▁著作物	-16375
▁街ゆく	-16376
▁論理の	-16377
ああいう	-16378
あいつら	-16379
あがって	-16380
あげます	-16381
あたりの	-16382
あとから	-16383
あの女の	-16384
あの女は	-16385
あの時の	-16386
あるから	-16387
あるって	-16388
あるやん	-16389
ある意味	-16390
あろうか	-16391
あんたの	-16392
あんだよ	-16393
あんのか	-16394
いいたげ	-16395
いいよね	-16396
いうより	-16397
いう事を	-16398
いくのが	-16399
いっちょ	-16400
いまくり	-16401
いまこそ	-16402
いよいよ	-16403
いられる	-16404
うるせえ	-16405
うんぬん	-16406
えていく	-16407
えないと	-16408
えられた	-16409
えられる	-16410
おきます	-16411
おしつけ	-16412
おたがい	-16413
おにぎり	-16414
おばさん	-16415
おまえが	-16416
おもいつ	-16417
お似合い	-16418
お前らが	-16419
お前らの	-16420
お見合い	-16421
かかれて	-16422
かけはな	-16423
かったら	-16424
かならず	-16425
からかわ	-16426
からこの	-16427
からしか	-16428
から出た	-16429
から出る	-16430
かれない	-16431
がないか	-16432
がないし	-16433
がばがば	-16434
がらせる	-16435
が働いて	-16436
が過ぎる	-16437
きません	-16438
きわまり	-16439
くだらん	-16440
くるくる	-16441
くわえて	-16442
くわしく	-16443
けていた	-16444
けておく	-16445
けれども	-16446
こうたら	-16447
こう言い	-16448
こう言う	-16449
ここでは	-16450
ことだよ	-16451
ことなら	-16452
ことは真	-16453
ことをな	-16454
このさい	-16455
この俺の	-16456
この俺を	-16457
この僕を	-16458
この場合	-16459
この奴隷	-16460
この手で	-16461
この程度	-16462
こんなん	-16463
ごめんよ	-16464
されてて	-16465
されれば	-16466
され命名	-16467
ざるを得	-16468
しえない	-16469
しおって	-16470
しがたい	-16471
しすぎて	-16472
しずらい	-16473
したいと	-16474
したのか	-16475
した時に	-16476
していい	-16477
してその	-16478
してたの	-16479
してます	-16480
してんの	-16481
しなさい	-16482
しまくり	-16483
しますが	-16484
しようか	-16485
しろって	-16486
じている	-16487
じぶんの	-16488
すきです	-16489
すっから	-16490
すらいる	-16491
するかの	-16492
するはず	-16493
するやつ	-16494
する形で	-16495
ずらずら	-16496
ぜんたい	-16497
そうしろ	-16498
そのよう	-16499
その人は	-16500
その前に	-16501
その国の	-16502
その女は	-16503
その女を	-16504
その本質	-16505
その根拠	-16506
その言葉	-16507
それかて	-16508
それしか	-16509
それだよ	-16510
それは何	-16511
それらに	-16512
たいして	-16513
たいと願	-16514
たいんだ	-16515
たくせに	-16516
ただ一人	-16517
たまたま	-16518
たまには	-16519
たらしめ	-16520
だが僕は	-16521
だけれど	-16522
だけを見	-16523
だと言い	-16524
だめだな	-16525
だめだろ	-16526
だれでも	-16527
だれにも	-16528
ちゃらぶ	-16529
ちゃんを	-16530
っこいい	-16531
ったって	-16532
ったのは	-16533
ってから	-16534
ってだれ	-16535
ってやつ	-16536
ってよく	-16537
ってんな	-16538
って一言	-16539
っぽいね	-16540
っぽさを	-16541
つくった	-16542
つ持たれ	-16543
ていうか	-16544
ています	-16545
でいくと	-16546
できなく	-16547
できるが	-16548
でやって	-16549
という者	-16550
とおなじ	-16551
とか深淵	-16552
とか関係	-16553
ときには	-16554
との関連	-16555
とはいえ	-16556
とは何か	-16557
とは思い	-16558
とは思う	-16559
と一緒に	-16560
と信じて	-16561
と思うが	-16562
と思える	-16563
と相場が	-16564
と聞くと	-16565
と自分を	-16566
と違って	-16567
どうたら	-16568
どちらの	-16569
どんでん	-16570
ないこと	-16571
ないよな	-16572
なこりゃ	-16573
なさって	-16574
なせる業	-16575
なってる	-16576
などと呼	-16577
なにそれ	-16578
なにもし	-16579
なにをだ	-16580
なのだと	-16581
なので笑	-16582
ならよく	-16583
なりとも	-16584
にかける	-16585
にしがみ	-16586
にしてた	-16587
にしてる	-16588
にすると	-16589
にするな	-16590
にだけは	-16591
になにが	-16592
にもっと	-16593
にもほど	-16594
にやって	-16595
に入れて	-16596
に則って	-16597
に向かう	-16598
に囚われ	-16599
に基づく	-16600
に感じる	-16601
に繋がる	-16602
に行くと	-16603
のお役に	-16604
のくせに	-16605
のたうち	-16606
のちのち	-16607
のでした	-16608
のではと	-16609
のと同じ	-16610
のは危険	-16611
のは困難	-16612
のほうを	-16613
のをやめ	-16614
のレベル	-16615
の世界の	-16616
の例なら	-16617
の全てに	-16618
の存在を	-16619
の数々の	-16620
の数々は	-16621
の真実を	-16622
の第一歩	-16623
の言葉を	-16624
の長さを	-16625
はあるか	-16626
はあるが	-16627
はいかが	-16628
はできる	-16629
はどうだ	-16630
は女の子	-16631
は新しい	-16632
ひっかけ	-16633
ひとりで	-16634
ひろゆき	-16635
ふたつの	-16636
への批判	-16637
ほころび	-16638
ほど良い	-16639
ぽつぽつ	-16640
ましたか	-16641
ましたよ	-16642
まずない	-16643
また一つ	-16644
まってて	-16645
まとめて	-16646
まります	-16647
みんなは	-16648
めていく	-16649
めている	-16650
めなさい	-16651
もないし	-16652
もないよ	-16653
もの以外	-16654
もらいた	-16655
もらおう	-16656
も同時に	-16657
も知らん	-16658
やしねえ	-16659
やるんだ	-16660
ゆえ私が	-16661
ゆえ私は	-16662
ようかん	-16663
ようなど	-16664
ようにも	-16665
よかろう	-16666
らないと	-16667
らないよ	-16668
られたい	-16669
られるか	-16670
わがまま	-16671
わけだよ	-16672
わたしが	-16673
わたしゃ	-16674
わないで	-16675
わらえる	-16676
をかます	-16677
をしたい	-16678
をなくす	-16679
を一気に	-16680
を作った	-16681
を保った	-16682
を含めた	-16683
を喰らう	-16684
を広げる	-16685
を抱える	-16686
を持つ者	-16687
を求めて	-16688
を狙って	-16689
を考える	-16690
を表わす	-16691
を被った	-16692
んじゃね	-16693
んですね	-16694
アイドル	-16695
アップロ	-16696
アニメの	-16697
アメリカ	-16698
アレンジ	-16699
イッパツ	-16700
イージー	-16701
ウウウウ	-16702
エピネラ	-16703
エントロ	-16704
カイロス	-16705
カロリー	-16706
キャリア	-16707
クラスの	-16708
グスタフ	-16709
ゲラゲラ	-16710
コマンド	-16711
コンビニ	-16712
コンピュ	-16713
コンプレ	-16714
サマエル	-16715
シャドウ	-16716
シュール	-16717
ショット	-16718
ジャック	-16719
ジョーイ	-16720
スイング	-16721
スクショ	-16722
スタンプ	-16723
セクシー	-16724
セクハラ	-16725
セミナー	-16726
センサー	-16727
ゾロフト	-16728
チンコは	-16729
ツマラン	-16730
テーマに	-16731
デリヘル	-16732
トリプレ	-16733
ニコ静に	-16734
ハイテク	-16735
ババアが	-16736
バランス	-16737
バレたら	-16738
パチパチ	-16739
ピアノを	-16740
ピアノ曲	-16741
フリして	-16742
フレーム	-16743
ブレイク	-16744
ブロード	-16745
プッシュ	-16746
プラット	-16747
ヘイリー	-16748
ベッドで	-16749
ボタンを	-16750
ポスター	-16751
マックス	-16752
メッセン	-16753
メモ取り	-16754
メモ帳で	-16755
ラーメン	-16756
リーダー	-16757
ルにハッ	-16758
ーラップ	-16759
一体何の	-16760
一体誰が	-16761
一般的な	-16762
一般的に	-16763
三角形は	-16764
世界には	-16765
世界中で	-16766
二番目の	-16767
人という	-16768
人に興味	-16769
人を愚弄	-16770
人気投票	-16771
人生には	-16772
今だって	-16773
今まさに	-16774
今日から	-16775
仕方ない	-16776
付き合い	-16777
代替行為	-16778
体中から	-16779
何がいい	-16780
何を意味	-16781
信じてる	-16782
個人的な	-16783
倍に希釈	-16784
側である	-16785
傷つける	-16786
働かない	-16787
僕のこと	-16788
全世界に	-16789
全世界の	-16790
公衆の面	-16791
内部から	-16792
内部的に	-16793
内面的な	-16794
出さない	-16795
出された	-16796
出したい	-16797
出会った	-16798
出鱈目な	-16799
分かって	-16800
利用して	-16801
副次的に	-16802
副長から	-16803
力がある	-16804
力がない	-16805
努力した	-16806
努力して	-16807
勇気づけ	-16808
化される	-16809
受け取る	-16810
受け止め	-16811
受け身の	-16812
合わせる	-16813
呑み込め	-16814
周波数を	-16815
問題解決	-16816
喉の痛み	-16817
喰われた	-16818
嘲笑する	-16819
四角形の	-16820
囲まれる	-16821
場所から	-16822
変わらん	-16823
外に出た	-16824
外部的な	-16825
多かった	-16826
大大大大	-16827
大好きで	-16828
大自然は	-16829
天国の島	-16830
天文学者	-16831
奪い去る	-16832
奪われた	-16833
女だった	-16834
女っぽい	-16835
女なのか	-16836
女にモテ	-16837
女の肉体	-16838
女ニンフ	-16839
女性から	-16840
女性には	-16841
好かれて	-16842
好きだし	-16843
好きです	-16844
始まって	-16845
嫉妬深い	-16846
嫌われ者	-16847
字あれば	-16848
学習した	-16849
安定した	-16850
実行する	-16851
寝ていた	-16852
少女漫画	-16853
尤度関数	-16854
届かない	-16855
差し出す	-16856
引き出す	-16857
弱者男性	-16858
当たって	-16859
役をやら	-16860
得られた	-16861
微笑んだ	-16862
心底から	-16863
忌み嫌う	-16864
快楽地獄	-16865
思われて	-16866
性があり	-16867
性のある	-16868
性的欲求	-16869
性的虐待	-16870
恋愛感情	-16871
恐怖する	-16872
恥じ入る	-16873
愛されて	-16874
感動した	-16875
憎しみを	-16876
成立した	-16877
成績優秀	-16878
戻れない	-16879
承認を欲	-16880
投影する	-16881
押し付け	-16882
抽象化は	-16883
掲示板に	-16884
提示せよ	-16885
攫われた	-16886
支配した	-16887
支離滅裂	-16888
救われる	-16889
敵対者は	-16890
方向を向	-16891
日本語の	-16892
日目には	-16893
昨日から	-16894
暇つぶし	-16895
木村には	-16896
来ている	-16897
根こそぎ	-16898
根本から	-16899
根本的な	-16900
楽しめる	-16901
歌ってる	-16902
正体とは	-16903
歪ませる	-16904
死なない	-16905
死にます	-16906
死に至る	-16907
残らない	-16908
殴る殴る	-16909
気にすら	-16910
求めない	-16911
沼らせる	-16912
注意が向	-16913
海原雄山	-16914
消される	-16915
深い意味	-16916
混乱する	-16917
湯たんぽ	-16918
滅茶苦茶	-16919
為だけに	-16920
無かった	-16921
無くなる	-16922
無意味の	-16923
無視して	-16924
狂ってる	-16925
狂気に陥	-16926
猫さんの	-16927
現代社会	-16928
理想です	-16929
理解しろ	-16930
理解でき	-16931
生徒全員	-16932
生成した	-16933
生成する	-16934
生理的に	-16935
男と女の	-16936
男になる	-16937
男性には	-16938
病んでる	-16939
的だった	-16940
的な内容	-16941
盗られた	-16942
目が見え	-16943
目ざわり	-16944
目で見た	-16945
目なんだ	-16946
目新しい	-16947
相対的な	-16948
相対的に	-16949
相応しい	-16950
睡眠状態	-16951
知ったら	-16952
知り尽く	-16953
知恵の実	-16954
破壊する	-16955
社会的に	-16956
禁中御掟	-16957
禍々しい	-16958
私は全て	-16959
私は嫉妬	-16960
立ち上げ	-16961
立ってる	-16962
算無限個	-16963
精神性は	-16964
精神構造	-16965
精神状態	-16966
精神病院	-16967
精神科医	-16968
結ばれる	-16969
結構です	-16970
絵を描き	-16971
繋がって	-16972
置かれた	-16973
置かれる	-16974
美しいが	-16975
者たちを	-16976
耳鳴りは	-16977
聞いたら	-16978
肯定的な	-16979
自主的に	-16980
自分が王	-16981
自分たち	-16982
自分らが	-16983
自分らの	-16984
自己成長	-16985
自然現象	-16986
興味ない	-16987
苦しんで	-16988
英文です	-16989
英語圏の	-16990
落として	-16991
行けない	-16992
行われて	-16993
行為です	-16994
表現力の	-16995
見ながら	-16996
視点から	-16997
視聴者が	-16998
視聴者を	-16999
観測者の	-17000
言い換え	-17001
言わせて	-17002
言語では	-17003
話がある	-17004
話を聞く	-17005
認識論的	-17006
誹られる	-17007
論理的な	-17008
貴方なら	-17009
貴方方が	-17010
貴方方は	-17011
起きない	-17012
迫られる	-17013
送られて	-17014
過ぎない	-17015
過学習の	-17016
違うんだ	-17017
遠回しに	-17018
遺伝子を	-17019
部分的に	-17020
金成時男	-17021
間違いを	-17022
間違って	-17023
関係性を	-17024
限界だし	-17025
階層構造	-17026
障碍者の	-17027
集中力が	-17028
雰囲気を	-17029
電気信号	-17030
青葉被告	-17031
頂けない	-17032
頑張って	-17033
頭の悪い	-17034
額のカネ	-17035
顔をして	-17036
飛行船の	-17037
驚くほど	-17038
魅力的な	-17039
魅力的に	-17040
!??!!	-17041
)1000	-17042
4:00～	-17043
6%96%	-17044
66.16	-17045
Piece	-17046
STACK	-17047
Verse	-17048
[...]
